unsigned char g_model[] = {
	0x1c, 0x00, 0x00, 0x00, 0x54, 0x46, 0x4c, 0x33, 0x14, 0x00, 0x20, 0x00,
	0x1c, 0x00, 0x18, 0x00, 0x14, 0x00, 0x10, 0x00, 0x0c, 0x00, 0x00, 0x00,
	0x08, 0x00, 0x04, 0x00, 0x14, 0x00, 0x00, 0x00, 0x1c, 0x00, 0x00, 0x00,
	0x94, 0x00, 0x00, 0x00, 0xec, 0x00, 0x00, 0x00, 0x78, 0x40, 0x00, 0x00,
	0x88, 0x40, 0x00, 0x00, 0x48, 0x44, 0x00, 0x00, 0x03, 0x00, 0x00, 0x00,
	0x01, 0x00, 0x00, 0x00, 0x10, 0x00, 0x00, 0x00, 0x00, 0x00, 0x0a, 0x00,
	0x10, 0x00, 0x0c, 0x00, 0x08, 0x00, 0x04, 0x00, 0x0a, 0x00, 0x00, 0x00,
	0x0c, 0x00, 0x00, 0x00, 0x1c, 0x00, 0x00, 0x00, 0x38, 0x00, 0x00, 0x00,
	0x0f, 0x00, 0x00, 0x00, 0x73, 0x65, 0x72, 0x76, 0x69, 0x6e, 0x67, 0x5f,
	0x64, 0x65, 0x66, 0x61, 0x75, 0x6c, 0x74, 0x00, 0x01, 0x00, 0x00, 0x00,
	0x04, 0x00, 0x00, 0x00, 0x94, 0xff, 0xff, 0xff, 0x06, 0x00, 0x00, 0x00,
	0x04, 0x00, 0x00, 0x00, 0x07, 0x00, 0x00, 0x00, 0x64, 0x65, 0x6e, 0x73,
	0x65, 0x5f, 0x35, 0x00, 0x01, 0x00, 0x00, 0x00, 0x04, 0x00, 0x00, 0x00,
	0x7e, 0xbf, 0xff, 0xff, 0x04, 0x00, 0x00, 0x00, 0x0f, 0x00, 0x00, 0x00,
	0x66, 0x6c, 0x61, 0x74, 0x74, 0x65, 0x6e, 0x5f, 0x33, 0x5f, 0x69, 0x6e,
	0x70, 0x75, 0x74, 0x00, 0x02, 0x00, 0x00, 0x00, 0x34, 0x00, 0x00, 0x00,
	0x04, 0x00, 0x00, 0x00, 0xdc, 0xff, 0xff, 0xff, 0x09, 0x00, 0x00, 0x00,
	0x04, 0x00, 0x00, 0x00, 0x13, 0x00, 0x00, 0x00, 0x43, 0x4f, 0x4e, 0x56,
	0x45, 0x52, 0x53, 0x49, 0x4f, 0x4e, 0x5f, 0x4d, 0x45, 0x54, 0x41, 0x44,
	0x41, 0x54, 0x41, 0x00, 0x08, 0x00, 0x0c, 0x00, 0x08, 0x00, 0x04, 0x00,
	0x08, 0x00, 0x00, 0x00, 0x08, 0x00, 0x00, 0x00, 0x04, 0x00, 0x00, 0x00,
	0x13, 0x00, 0x00, 0x00, 0x6d, 0x69, 0x6e, 0x5f, 0x72, 0x75, 0x6e, 0x74,
	0x69, 0x6d, 0x65, 0x5f, 0x76, 0x65, 0x72, 0x73, 0x69, 0x6f, 0x6e, 0x00,
	0x0a, 0x00, 0x00, 0x00, 0x88, 0x3f, 0x00, 0x00, 0x80, 0x3f, 0x00, 0x00,
	0x48, 0x3f, 0x00, 0x00, 0x30, 0x3f, 0x00, 0x00, 0xa0, 0x00, 0x00, 0x00,
	0x98, 0x00, 0x00, 0x00, 0x90, 0x00, 0x00, 0x00, 0x88, 0x00, 0x00, 0x00,
	0x68, 0x00, 0x00, 0x00, 0x04, 0x00, 0x00, 0x00, 0x22, 0xc0, 0xff, 0xff,
	0x04, 0x00, 0x00, 0x00, 0x54, 0x00, 0x00, 0x00, 0x0c, 0x00, 0x00, 0x00,
	0x08, 0x00, 0x0e, 0x00, 0x08, 0x00, 0x04, 0x00, 0x08, 0x00, 0x00, 0x00,
	0x10, 0x00, 0x00, 0x00, 0x24, 0x00, 0x00, 0x00, 0x00, 0x00, 0x06, 0x00,
	0x08, 0x00, 0x04, 0x00, 0x06, 0x00, 0x00, 0x00, 0x04, 0x00, 0x00, 0x00,
	0x00, 0x00, 0x00, 0x00, 0x00, 0x00, 0x0a, 0x00, 0x10, 0x00, 0x0c, 0x00,
	0x08, 0x00, 0x04, 0x00, 0x0a, 0x00, 0x00, 0x00, 0x01, 0x00, 0x00, 0x00,
	0x02, 0x00, 0x00, 0x00, 0x04, 0x00, 0x00, 0x00, 0x05, 0x00, 0x00, 0x00,
	0x32, 0x2e, 0x39, 0x2e, 0x31, 0x00, 0x00, 0x00, 0x82, 0xc0, 0xff, 0xff,
	0x04, 0x00, 0x00, 0x00, 0x10, 0x00, 0x00, 0x00, 0x31, 0x2e, 0x35, 0x2e,
	0x30, 0x00, 0x00, 0x00, 0x00, 0x00, 0x00, 0x00, 0x00, 0x00, 0x00, 0x00,
	0x84, 0xbd, 0xff, 0xff, 0x88, 0xbd, 0xff, 0xff, 0x8c, 0xbd, 0xff, 0xff,
	0xaa, 0xc0, 0xff, 0xff, 0x04, 0x00, 0x00, 0x00, 0x80, 0x3e, 0x00, 0x00,
	0xc7, 0xdd, 0x27, 0xbf, 0x18, 0xd1, 0x89, 0xbe, 0x41, 0xcf, 0x56, 0xbe,
	0x93, 0x5c, 0x86, 0xbe, 0x9b, 0xf3, 0xcb, 0x3c, 0x24, 0x38, 0xe1, 0xbd,
	0xa9, 0x40, 0x8d, 0x3c, 0x0c, 0xec, 0xc8, 0x3d, 0xf3, 0x9a, 0x47, 0x3d,
	0x64, 0xf2, 0x9f, 0x3d, 0xa9, 0x04, 0x86, 0xbd, 0x07, 0x05, 0x04, 0xbe,
	0x75, 0x9b, 0xeb, 0xbd, 0x64, 0xa9, 0x90, 0x3c, 0xf5, 0xd8, 0x2b, 0x3c,
	0xe8, 0x8a, 0xde, 0xbc, 0xfd, 0x4a, 0xc0, 0xbc, 0x93, 0xcd, 0x0b, 0xbe,
	0xff, 0xdb, 0x5c, 0xbe, 0x78, 0x12, 0x99, 0xbe, 0x57, 0xa9, 0xe7, 0xbe,
	0xe7, 0xe6, 0x94, 0xbe, 0xcd, 0xfa, 0x80, 0xbe, 0x00, 0xc0, 0x05, 0xbe,
	0x11, 0x0d, 0xfa, 0xbd, 0x40, 0x6c, 0x39, 0xbe, 0x1b, 0x29, 0x71, 0xbd,
	0x4c, 0xdf, 0x03, 0xbe, 0xca, 0x59, 0x4a, 0x3d, 0xd8, 0xa4, 0x2d, 0xbe,
	0xeb, 0x42, 0x11, 0xbe, 0x09, 0xbf, 0x11, 0x3d, 0x66, 0xac, 0x51, 0xbe,
	0x6c, 0xd5, 0x08, 0xbe, 0x51, 0x3f, 0xf5, 0xbd, 0xcd, 0x8f, 0x37, 0xbe,
	0x61, 0x66, 0x0a, 0xbd, 0x47, 0x12, 0x02, 0xbe, 0x1b, 0x65, 0x16, 0xbe,
	0x5c, 0x30, 0x2e, 0xbe, 0x20, 0x28, 0x7c, 0xbe, 0x29, 0x00, 0xb3, 0xbd,
	0x6e, 0x09, 0xe9, 0xbd, 0xec, 0xe0, 0x0d, 0xbe, 0xd6, 0x6a, 0xc2, 0xbd,
	0x0f, 0x93, 0x11, 0xbe, 0x8a, 0x5d, 0x48, 0xbd, 0x97, 0xac, 0x45, 0xbd,
	0x11, 0x24, 0xec, 0x3d, 0xab, 0x37, 0xeb, 0x3d, 0x1c, 0x40, 0x8f, 0xbd,
	0x5e, 0x22, 0xde, 0x3d, 0x76, 0xa5, 0x0f, 0x3e, 0x4d, 0xb7, 0xea, 0x3d,
	0xf1, 0x9d, 0x73, 0x3d, 0x68, 0x89, 0x00, 0x3e, 0x89, 0xf9, 0xcd, 0x3d,
	0x4c, 0x34, 0x01, 0x3d, 0x4b, 0x9f, 0x4f, 0xbe, 0x1f, 0x67, 0x76, 0xbe,
	0xdc, 0x00, 0x8f, 0xbd, 0xba, 0x79, 0xa7, 0x3b, 0xb8, 0x35, 0xba, 0xbd,
	0x07, 0x10, 0x9c, 0x3c, 0x4f, 0x65, 0x8e, 0x3d, 0xed, 0x03, 0x9e, 0xbd,
	0xd6, 0xbe, 0xd1, 0xbd, 0x77, 0x5c, 0xce, 0x3d, 0x98, 0xa9, 0xff, 0xbc,
	0x68, 0x6a, 0xed, 0x3d, 0xcc, 0x94, 0x5c, 0x3e, 0xc8, 0x2c, 0x4e, 0x3e,
	0x88, 0xda, 0xf2, 0x3d, 0x80, 0x9e, 0x13, 0x3e, 0x62, 0xd1, 0x15, 0x3e,
	0xc5, 0x33, 0x03, 0xbd, 0x5a, 0x12, 0x22, 0xbc, 0x11, 0xc1, 0x68, 0xbb,
	0x0c, 0x10, 0x0c, 0x3d, 0x87, 0x82, 0x69, 0xba, 0xfa, 0x17, 0x3b, 0x3d,
	0x5d, 0xee, 0xad, 0xbd, 0x2d, 0xab, 0x40, 0xbe, 0x43, 0xe4, 0x93, 0xbd,
	0x24, 0xc1, 0xa7, 0xbb, 0xc4, 0xaf, 0x47, 0x3d, 0xc6, 0xce, 0x75, 0xbd,
	0x03, 0x35, 0x0e, 0xbc, 0xd4, 0x40, 0x62, 0x3c, 0xc6, 0x91, 0xb5, 0x3d,
	0x20, 0xed, 0x04, 0x3e, 0x4e, 0xc3, 0x5a, 0x3e, 0xf3, 0xf3, 0x5c, 0x3e,
	0x6d, 0x63, 0x34, 0x3e, 0x66, 0x15, 0xf9, 0x3d, 0x99, 0x24, 0x34, 0x3e,
	0xe9, 0x8f, 0x18, 0xbd, 0x7a, 0xe4, 0x28, 0x3e, 0x0d, 0xe5, 0x69, 0x3e,
	0xbd, 0x15, 0xe8, 0x3d, 0xe0, 0x1c, 0x21, 0xbe, 0x63, 0x9e, 0x1e, 0xbe,
	0x2e, 0xe8, 0xbf, 0x39, 0xa9, 0xe0, 0x13, 0x3b, 0x18, 0xda, 0xa2, 0xbd,
	0x73, 0xd5, 0xfe, 0xbc, 0x5d, 0xeb, 0xd4, 0x3c, 0x43, 0xf4, 0xd9, 0x3b,
	0x84, 0xb5, 0x0a, 0xbd, 0x7d, 0xea, 0xe0, 0xbd, 0x0b, 0x85, 0xba, 0x3d,
	0x90, 0xa5, 0x28, 0x3e, 0xa5, 0xa9, 0x22, 0x3e, 0x55, 0x47, 0x41, 0x3e,
	0xf2, 0xe8, 0x7a, 0x3d, 0xac, 0x60, 0x43, 0x3d, 0x87, 0x39, 0xb2, 0x3d,
	0xe1, 0x51, 0x0f, 0x3e, 0x1b, 0xc6, 0x36, 0x3e, 0x50, 0x41, 0xa8, 0x3e,
	0x0f, 0x9c, 0x57, 0xbe, 0xeb, 0xc9, 0x1f, 0xbd, 0x58, 0x71, 0x96, 0x3c,
	0xc7, 0x00, 0xfd, 0xbd, 0xa1, 0xeb, 0xd2, 0xbd, 0x0d, 0x5b, 0xf1, 0xbd,
	0xfc, 0xf1, 0xa0, 0xbc, 0x8e, 0x8d, 0xeb, 0xbb, 0x95, 0x03, 0x7b, 0xbd,
	0xca, 0x39, 0x6e, 0xbc, 0x0e, 0x6e, 0xa8, 0x3d, 0x5e, 0x79, 0xeb, 0x3d,
	0x16, 0x40, 0x47, 0xbc, 0x44, 0xbf, 0xbe, 0x3c, 0x15, 0x34, 0x8b, 0xbc,
	0xbf, 0xe6, 0xd4, 0x3d, 0x4b, 0xb7, 0xc8, 0x3d, 0x0c, 0x9b, 0x9b, 0x3d,
	0x51, 0xae, 0x69, 0x3e, 0x0a, 0x54, 0x8e, 0x3e, 0xeb, 0xf3, 0x6a, 0xbd,
	0x99, 0x5f, 0x18, 0xbe, 0x81, 0xe0, 0x71, 0xbd, 0xa3, 0x85, 0x05, 0x3d,
	0x26, 0xe2, 0xec, 0xbd, 0x2b, 0x5d, 0x48, 0x3d, 0x33, 0x17, 0x59, 0xbe,
	0x1d, 0xd0, 0x89, 0xbd, 0xb7, 0x94, 0xce, 0xbd, 0x9a, 0xe6, 0x57, 0xbe,
	0x38, 0x5a, 0x51, 0xbd, 0x6e, 0x92, 0xd2, 0xbd, 0xff, 0xe5, 0x88, 0xbd,
	0x2d, 0x71, 0x2b, 0xbd, 0x3a, 0x84, 0x66, 0x3c, 0x35, 0x26, 0xd8, 0xbd,
	0x02, 0x64, 0xc2, 0xbc, 0x24, 0xb7, 0xca, 0x3c, 0x18, 0x6e, 0xba, 0x3e,
	0x76, 0xb3, 0xaa, 0x3e, 0xcf, 0xf0, 0xcf, 0x3d, 0x8c, 0x88, 0x16, 0x3e,
	0xdc, 0x4e, 0xc8, 0x3c, 0xe5, 0x2b, 0x4f, 0xbd, 0x79, 0xee, 0x44, 0xbd,
	0xb1, 0xcf, 0x06, 0xbd, 0x84, 0xd9, 0xcb, 0xbd, 0xe4, 0x12, 0xa6, 0xbc,
	0x94, 0x93, 0x90, 0xbd, 0x54, 0x63, 0xad, 0xbe, 0xd4, 0xa9, 0xf6, 0xbd,
	0x64, 0xbf, 0x8d, 0xbd, 0x5d, 0x50, 0xbc, 0xbd, 0x95, 0x2a, 0x00, 0xbe,
	0x3d, 0x1c, 0x37, 0xbe, 0x39, 0xb2, 0x05, 0xbe, 0x91, 0x62, 0xcc, 0xbd,
	0x9f, 0x4d, 0x3a, 0x3e, 0x55, 0x3c, 0xfe, 0x3d, 0xa4, 0xfa, 0x8d, 0x3e,
	0x38, 0x69, 0x0e, 0x3e, 0xa7, 0xf1, 0xfb, 0x3d, 0xc2, 0x24, 0x3a, 0x3e,
	0x5d, 0xaf, 0xd4, 0x3d, 0x1d, 0xfb, 0xff, 0xbb, 0x22, 0x29, 0xd1, 0xbd,
	0x1b, 0xe8, 0x21, 0xbd, 0xbf, 0x63, 0x07, 0xbe, 0x58, 0xe7, 0x87, 0xbe,
	0x8c, 0xaa, 0xd0, 0xbe, 0x8d, 0xcc, 0x6c, 0xbe, 0x40, 0x61, 0x5e, 0xbe,
	0xfe, 0x98, 0x8a, 0xbe, 0x89, 0xb8, 0xc8, 0xbd, 0x5e, 0x0a, 0xe9, 0xbd,
	0x25, 0x60, 0x30, 0xbc, 0xfd, 0xcb, 0x0c, 0x3e, 0xb6, 0xe8, 0xfc, 0xbc,
	0x08, 0xbf, 0x36, 0x3e, 0x61, 0x1d, 0x71, 0x3e, 0xa8, 0x5b, 0x95, 0x3e,
	0x4d, 0xcc, 0xdd, 0x3d, 0x60, 0xc4, 0x2d, 0x3e, 0xdc, 0x53, 0x9e, 0x3d,
	0x38, 0x08, 0xbc, 0x3d, 0x36, 0xd9, 0xff, 0x3d, 0x08, 0x09, 0x49, 0xbd,
	0x9a, 0x7f, 0x28, 0xbe, 0xa8, 0xf7, 0x80, 0xbe, 0xcd, 0xd8, 0xf3, 0xbe,
	0xbf, 0xba, 0xaa, 0xbe, 0x15, 0x74, 0x75, 0xbe, 0xe3, 0x69, 0x30, 0xbe,
	0x15, 0x71, 0xd1, 0x3c, 0x03, 0xe9, 0x11, 0x3d, 0x1e, 0xa2, 0x92, 0x39,
	0x1b, 0xa0, 0x14, 0x3d, 0xa1, 0x84, 0xc7, 0x3d, 0xb1, 0x1a, 0x20, 0x3e,
	0x2f, 0x5e, 0xc4, 0x3d, 0x3f, 0x1d, 0x21, 0x3e, 0x73, 0x89, 0x7e, 0x3e,
	0x59, 0x5d, 0x19, 0x3e, 0xb1, 0xe1, 0x0d, 0x3e, 0x62, 0xd1, 0xac, 0x3d,
	0x6a, 0xaf, 0x0e, 0x3d, 0x56, 0x1e, 0xae, 0xbd, 0x91, 0xad, 0x4a, 0xbe,
	0x8e, 0x20, 0xc3, 0xbe, 0x87, 0xd6, 0xae, 0xbe, 0x46, 0x6f, 0xf7, 0xbd,
	0x77, 0xbc, 0x97, 0xbe, 0x88, 0x4a, 0x7a, 0xbd, 0x1c, 0xdf, 0x29, 0xbe,
	0xa8, 0x12, 0xd5, 0x3d, 0xa3, 0xba, 0x85, 0x3d, 0x76, 0x1e, 0x18, 0x3e,
	0xcc, 0x91, 0x1d, 0x3e, 0x93, 0xab, 0x91, 0x3e, 0x60, 0xdc, 0x59, 0x3e,
	0xed, 0xa2, 0x12, 0x3e, 0x98, 0x4a, 0x5a, 0x3e, 0x69, 0xd7, 0x5d, 0x3e,
	0xb0, 0xa0, 0x73, 0x3d, 0x0d, 0xb1, 0x16, 0x3e, 0x65, 0x81, 0xcc, 0x3c,
	0x41, 0x6c, 0xfc, 0xbd, 0xc9, 0x44, 0xe1, 0xbe, 0xf7, 0xfe, 0xcd, 0xbe,
	0xa7, 0xe7, 0xc7, 0xbe, 0x21, 0xcd, 0x0c, 0xbe, 0x31, 0x7b, 0xbe, 0xbc,
	0xb9, 0x17, 0x1e, 0x3d, 0x7e, 0x26, 0xf4, 0x3b, 0xaf, 0xd7, 0x64, 0xbd,
	0x54, 0x2e, 0xcf, 0x3d, 0x7d, 0x33, 0xd7, 0xbc, 0x6b, 0x12, 0x7a, 0xbd,
	0x03, 0xd4, 0xd5, 0x3b, 0xad, 0xe2, 0xa2, 0x3d, 0x1d, 0xa6, 0x06, 0x3e,
	0x0c, 0x9c, 0x04, 0x3d, 0x5a, 0x09, 0xd9, 0x3d, 0xc1, 0x30, 0x3c, 0x3e,
	0x5d, 0xa6, 0xe7, 0x3d, 0x57, 0x08, 0x00, 0x3d, 0xfe, 0x8d, 0x51, 0xbe,
	0xc5, 0xf5, 0x8e, 0xbe, 0xd7, 0xb2, 0x63, 0xbe, 0x7e, 0x5a, 0x66, 0xbe,
	0x78, 0xfe, 0x96, 0xbd, 0x08, 0x52, 0xe2, 0xbd, 0xfc, 0xe3, 0x40, 0x3c,
	0x7b, 0xc3, 0x75, 0x3d, 0xf8, 0x37, 0x50, 0x3d, 0xff, 0x91, 0x35, 0x3d,
	0xfb, 0x58, 0x4d, 0xbd, 0x96, 0xad, 0x08, 0x3d, 0x64, 0xcc, 0x0d, 0x3e,
	0x90, 0xfa, 0xec, 0x3d, 0xe7, 0xe0, 0x30, 0x3d, 0x8f, 0x44, 0xf2, 0x3d,
	0x1d, 0x92, 0x42, 0x3e, 0x2b, 0xe4, 0x46, 0xbd, 0x2d, 0x94, 0x96, 0xbd,
	0x55, 0x16, 0x61, 0xbe, 0x32, 0x2b, 0x9e, 0xbe, 0xa4, 0x38, 0x05, 0xbe,
	0xb7, 0x45, 0x05, 0xbe, 0x27, 0x6f, 0x04, 0xbe, 0x57, 0x26, 0x49, 0x3d,
	0x99, 0x72, 0x32, 0x3d, 0xf7, 0xed, 0x6f, 0x3d, 0xc8, 0xec, 0x13, 0x3e,
	0x7a, 0x1f, 0x8e, 0xbd, 0xbc, 0xbf, 0xbc, 0xbc, 0xca, 0x2c, 0x09, 0xbe,
	0x04, 0x17, 0xf4, 0x3d, 0x32, 0x80, 0xf0, 0x3d, 0xe3, 0x25, 0xa9, 0x3d,
	0xdb, 0xf2, 0x4a, 0xbd, 0xbd, 0x7a, 0x30, 0x3e, 0x5e, 0x43, 0xfc, 0x3a,
	0x26, 0xf5, 0xb7, 0xbd, 0xcd, 0x6c, 0x14, 0xbe, 0x1a, 0x7e, 0xb0, 0xbd,
	0x5c, 0x81, 0xf7, 0xbc, 0x05, 0x5c, 0x99, 0x3b, 0xce, 0x0a, 0x00, 0xbd,
	0x1b, 0x4d, 0x90, 0x3d, 0x65, 0x1e, 0xee, 0x3c, 0xf2, 0x54, 0x81, 0xbd,
	0x4e, 0x60, 0x33, 0x3c, 0xba, 0x36, 0xa1, 0x3d, 0xac, 0x49, 0xab, 0xbd,
	0x8a, 0xa5, 0xdd, 0x3b, 0x2d, 0x2b, 0xa4, 0xbd, 0x5a, 0x3c, 0x4d, 0x3d,
	0x9a, 0x8b, 0x2f, 0x3e, 0x6d, 0x0f, 0x73, 0x3c, 0x06, 0x8e, 0x66, 0xbc,
	0xc7, 0x6e, 0x90, 0xbd, 0xf1, 0x2d, 0x27, 0x3d, 0x04, 0x03, 0x18, 0x3d,
	0xe5, 0xcb, 0x18, 0xbd, 0xf2, 0xb6, 0x0a, 0x3e, 0x7d, 0x6d, 0x95, 0x3e,
	0xb9, 0x41, 0x9d, 0x3e, 0x2c, 0x8f, 0x5a, 0x3e, 0xd4, 0xae, 0xfc, 0x3d,
	0x60, 0xe9, 0xe2, 0x3d, 0xef, 0x82, 0xf4, 0x3c, 0x5b, 0x3a, 0xdf, 0xbd,
	0xde, 0x8b, 0x1f, 0x3c, 0x4f, 0xf8, 0x15, 0xbb, 0xd3, 0x13, 0xc1, 0xbd,
	0xdb, 0x68, 0xa5, 0xbd, 0x8a, 0x51, 0x7b, 0x3d, 0x60, 0x2a, 0xbe, 0x3d,
	0x79, 0xf7, 0x83, 0x3d, 0x45, 0xb0, 0x5b, 0x3d, 0x9e, 0xd7, 0x01, 0x3e,
	0x44, 0x3a, 0x85, 0xbd, 0x48, 0xce, 0x4e, 0x3d, 0x7a, 0xa5, 0x96, 0x3d,
	0xb1, 0x23, 0x53, 0x3e, 0xef, 0xfe, 0xba, 0x3d, 0x3c, 0xed, 0x60, 0x3e,
	0x6b, 0x95, 0x56, 0x3d, 0x32, 0x34, 0x53, 0x3e, 0xbf, 0x90, 0xda, 0x3d,
	0x2f, 0xcf, 0x2f, 0x3c, 0x82, 0x4e, 0x1d, 0x3d, 0xf3, 0x6c, 0x8f, 0x3b,
	0x71, 0x08, 0x47, 0xbe, 0x0e, 0x6a, 0xd6, 0xbc, 0x90, 0xed, 0x96, 0x3d,
	0x34, 0x04, 0x6e, 0xbd, 0xb7, 0x4e, 0xaf, 0xbd, 0x52, 0xd8, 0x54, 0xbe,
	0xc9, 0xee, 0x38, 0xbe, 0xe7, 0x6e, 0x66, 0xbd, 0x5a, 0x2b, 0x49, 0x3d,
	0x11, 0xbb, 0x84, 0x3d, 0xbf, 0xa3, 0x1b, 0x3e, 0x7d, 0x02, 0x20, 0x3e,
	0xf7, 0x54, 0x17, 0x3e, 0x84, 0x71, 0x8e, 0x3d, 0xce, 0x24, 0xe2, 0x3d,
	0xc9, 0xfb, 0x06, 0x3e, 0x7c, 0xa9, 0x23, 0x3e, 0x9e, 0xf3, 0x41, 0x3d,
	0xf2, 0xe7, 0x14, 0xbd, 0x59, 0xb9, 0xd2, 0xbc, 0x42, 0xe2, 0xf6, 0xbc,
	0xc7, 0x59, 0xb6, 0xbd, 0xbd, 0xbe, 0xa0, 0xbd, 0x4f, 0x41, 0xa5, 0xbd,
	0x28, 0xc0, 0x42, 0xbe, 0x0f, 0x93, 0xe6, 0xbe, 0x14, 0xd0, 0x10, 0xbf,
	0xa5, 0x1b, 0xae, 0xbd, 0xb1, 0x46, 0xeb, 0x3d, 0x5e, 0x9d, 0x65, 0x3e,
	0x17, 0xe6, 0x82, 0x3e, 0xfe, 0x43, 0x4f, 0x3e, 0xb0, 0x65, 0x26, 0x3e,
	0x3e, 0x34, 0xb0, 0xbd, 0xd7, 0x9e, 0x99, 0xbd, 0xb2, 0x43, 0xdd, 0x3d,
	0x3d, 0x4e, 0x0e, 0x3c, 0xf9, 0x62, 0x2b, 0x3e, 0x62, 0x84, 0xfc, 0x3d,
	0xad, 0x34, 0xb5, 0x3d, 0x07, 0xd4, 0x1e, 0xbe, 0x24, 0xb2, 0x33, 0xbd,
	0x47, 0x74, 0x96, 0xbe, 0x23, 0x83, 0xc2, 0xbe, 0x08, 0xff, 0xf8, 0xbe,
	0x86, 0xec, 0xd0, 0xbe, 0xb2, 0x3b, 0xc6, 0x3e, 0x78, 0x1a, 0x87, 0x3e,
	0xc7, 0xa6, 0x41, 0x3e, 0xb5, 0x9c, 0xbe, 0xbd, 0xa3, 0x82, 0xc6, 0xbe,
	0xad, 0xd4, 0xa5, 0xbe, 0x80, 0x12, 0x42, 0xbe, 0x62, 0x5e, 0x37, 0xbd,
	0x7e, 0x2c, 0xe1, 0xbc, 0x97, 0x41, 0x97, 0xbd, 0xad, 0x87, 0xea, 0xbd,
	0x7c, 0x46, 0xbc, 0xbd, 0x4e, 0x56, 0xe4, 0x3c, 0xa1, 0x64, 0xcc, 0xbd,
	0x3c, 0x36, 0x28, 0xbe, 0x0f, 0x86, 0x06, 0xbe, 0x99, 0xe5, 0x85, 0x3d,
	0x03, 0xa2, 0x18, 0x3e, 0x3d, 0x1c, 0x64, 0xbe, 0x9f, 0xce, 0xb5, 0xbe,
	0x54, 0xfe, 0xf0, 0x3d, 0xb9, 0x10, 0xdd, 0xbc, 0x7f, 0xa3, 0x00, 0xbe,
	0x20, 0xf7, 0x89, 0xbe, 0xcc, 0x30, 0xb0, 0xbe, 0x47, 0x18, 0x24, 0xbf,
	0x48, 0x13, 0x0b, 0xbf, 0x7f, 0x1e, 0x04, 0xbf, 0xf0, 0xcc, 0x0b, 0xbf,
	0x57, 0x36, 0xc1, 0xbe, 0x1e, 0xf7, 0xa8, 0xbe, 0x66, 0x37, 0x88, 0xbe,
	0x8f, 0x9d, 0xbd, 0xbe, 0xeb, 0xc8, 0xba, 0xbe, 0x4a, 0x67, 0xd0, 0xbe,
	0x14, 0x4b, 0x87, 0xbe, 0xa4, 0xa5, 0x00, 0xbe, 0xa5, 0xe1, 0xc7, 0xbe,
	0xb3, 0xd3, 0xd7, 0xbe, 0x2f, 0x6c, 0x6d, 0xbe, 0x33, 0x84, 0xae, 0xbc,
	0x2d, 0x22, 0x02, 0xbc, 0x66, 0x8c, 0x52, 0x3d, 0xf7, 0x12, 0x55, 0xbe,
	0x3b, 0x70, 0xf0, 0xbd, 0x51, 0x30, 0x80, 0xbe, 0xd4, 0xa3, 0x94, 0xbe,
	0x08, 0xe8, 0x36, 0xbe, 0xe9, 0x3a, 0xbf, 0xbe, 0x7f, 0xb5, 0x72, 0xbe,
	0x80, 0x0a, 0x6a, 0xbe, 0x77, 0x19, 0x90, 0xbe, 0x3b, 0x7f, 0x49, 0xbe,
	0x8f, 0x67, 0xc4, 0xbd, 0x78, 0x55, 0xa3, 0xbe, 0x4f, 0xe6, 0x42, 0xbe,
	0x31, 0xbc, 0x31, 0xbe, 0x9b, 0xc1, 0x39, 0xbe, 0x47, 0xcb, 0x7d, 0xbe,
	0xd3, 0x23, 0x01, 0xbe, 0x95, 0x6b, 0xf2, 0xbd, 0x6c, 0x40, 0x39, 0xbd,
	0x92, 0x3d, 0xcd, 0x3d, 0x85, 0x92, 0x2b, 0x3e, 0x3e, 0x14, 0x72, 0x3e,
	0x33, 0xeb, 0x1e, 0xbd, 0x41, 0x4b, 0x18, 0xbe, 0x99, 0x86, 0x32, 0xbe,
	0x8a, 0x1d, 0x9f, 0xbe, 0x7f, 0xcc, 0x0a, 0xbe, 0x6e, 0x80, 0x6a, 0xbe,
	0xef, 0x16, 0x13, 0xbe, 0xb4, 0xb9, 0x21, 0xbe, 0x21, 0x1f, 0x56, 0xbd,
	0x9d, 0x25, 0x62, 0xbd, 0xcb, 0x0b, 0x17, 0x3d, 0x9f, 0xd5, 0xc5, 0xbd,
	0xb0, 0xa4, 0x01, 0x3a, 0x7d, 0x83, 0xbd, 0xbd, 0x32, 0xb7, 0x81, 0xbe,
	0xe1, 0x9e, 0x87, 0xbd, 0xb6, 0xfc, 0x2a, 0xbd, 0x80, 0x01, 0xd9, 0x3d,
	0xed, 0x1f, 0x86, 0x3e, 0x45, 0x86, 0x4f, 0x3e, 0x55, 0x92, 0x27, 0x3e,
	0xbd, 0x6d, 0x2b, 0x3e, 0xe7, 0x26, 0x60, 0x3d, 0x55, 0x7d, 0x23, 0xbe,
	0x6f, 0x4b, 0x59, 0xbb, 0xc9, 0x69, 0x34, 0xbe, 0x99, 0xb0, 0x01, 0xbd,
	0xf3, 0x5b, 0x90, 0xbd, 0xc5, 0xd5, 0x02, 0xbe, 0xa4, 0xf3, 0xcb, 0xbc,
	0x49, 0xc2, 0xaa, 0xbc, 0x7e, 0x38, 0x13, 0xbd, 0xc2, 0x21, 0x4e, 0xbd,
	0x07, 0x56, 0xdb, 0xbd, 0x40, 0xb4, 0x03, 0xbf, 0xdd, 0x4c, 0x7f, 0xbd,
	0x0a, 0x9b, 0xa9, 0xbd, 0xdf, 0x37, 0xa1, 0xbd, 0xd1, 0x7d, 0x2c, 0x3e,
	0x6e, 0xdb, 0xfb, 0x3d, 0x5c, 0x01, 0x5a, 0x3e, 0xc0, 0x8d, 0xe1, 0x3d,
	0x70, 0xa8, 0x22, 0x3e, 0x35, 0xda, 0xec, 0x3d, 0xc5, 0xcc, 0x41, 0x3e,
	0x3b, 0x11, 0x4c, 0xbe, 0x91, 0xb1, 0xd9, 0xbc, 0x99, 0xd9, 0x91, 0x3d,
	0x17, 0x06, 0xd7, 0xbd, 0xf2, 0xed, 0x22, 0xbd, 0x8b, 0x71, 0x44, 0xbd,
	0x8c, 0xc6, 0xa3, 0xbd, 0xc4, 0x22, 0xc1, 0xbd, 0xa8, 0x8a, 0x46, 0xbe,
	0xeb, 0x18, 0xdb, 0xbe, 0xe3, 0xe3, 0xdb, 0xbd, 0xe8, 0x11, 0xd4, 0xbd,
	0x73, 0x52, 0x98, 0xbd, 0x16, 0x63, 0xd5, 0x3d, 0x03, 0x75, 0x1b, 0x3d,
	0x14, 0xea, 0x88, 0x3d, 0x64, 0x13, 0x42, 0x3e, 0x76, 0x8a, 0xd0, 0x3d,
	0x46, 0xb8, 0x05, 0x3e, 0x84, 0x69, 0xeb, 0x3d, 0xe6, 0x50, 0xb8, 0xbd,
	0x16, 0x39, 0x4f, 0x3d, 0x2d, 0xe6, 0xb5, 0xbc, 0xe6, 0x1e, 0x4f, 0xbd,
	0x0a, 0x7a, 0x5a, 0xbe, 0xe5, 0xcd, 0xe8, 0x3a, 0x42, 0xcf, 0x2f, 0x3c,
	0xd1, 0xb1, 0x85, 0xbe, 0x38, 0xe6, 0x89, 0xbe, 0xa7, 0x18, 0x13, 0xbf,
	0x9e, 0x05, 0x77, 0xbe, 0x22, 0x65, 0xa8, 0xbd, 0x33, 0xde, 0xfe, 0xbc,
	0x44, 0xef, 0x33, 0x3d, 0x27, 0xe3, 0x8f, 0x3d, 0xf0, 0x5a, 0xf2, 0x3d,
	0xed, 0x3a, 0xd7, 0x3d, 0xb1, 0xba, 0x03, 0x3e, 0xc6, 0xba, 0x2f, 0x3e,
	0xaf, 0xb2, 0x6c, 0x3e, 0x35, 0x2a, 0x0a, 0xbb, 0xf0, 0x10, 0xfe, 0x3d,
	0x79, 0x35, 0xec, 0x3d, 0x1f, 0xb4, 0x33, 0xbe, 0xe8, 0x0a, 0xdc, 0x3c,
	0x8e, 0x9e, 0x09, 0x3e, 0xd1, 0x6e, 0xaf, 0xbc, 0x71, 0x1b, 0x71, 0xbe,
	0xd0, 0x06, 0xa3, 0xbe, 0xd6, 0xae, 0xd6, 0xbe, 0x8e, 0x6f, 0x72, 0x3d,
	0x6c, 0xaa, 0x31, 0xbe, 0x61, 0x80, 0x37, 0xbd, 0xd5, 0x65, 0xf5, 0x3c,
	0x84, 0x60, 0x10, 0x3d, 0x29, 0x31, 0xda, 0x3d, 0x38, 0x3c, 0x12, 0x3e,
	0xee, 0xa3, 0xee, 0x3b, 0xa2, 0xa1, 0x6e, 0x3e, 0x46, 0x2d, 0x0f, 0x3e,
	0x9a, 0xb8, 0x24, 0x3c, 0x2c, 0x23, 0x28, 0xbc, 0x48, 0xe9, 0x31, 0x3e,
	0xba, 0x54, 0xc2, 0x3d, 0x30, 0x6f, 0x98, 0x3d, 0x23, 0x55, 0x83, 0x3d,
	0xe1, 0x02, 0x4f, 0xbe, 0x09, 0xcd, 0xae, 0xbe, 0xd0, 0xdb, 0xe3, 0xbe,
	0xb2, 0x2f, 0x1e, 0xbf, 0xcc, 0xee, 0xbf, 0xb9, 0x6c, 0x28, 0x9f, 0x3c,
	0x28, 0x97, 0x37, 0x3d, 0x2c, 0x1b, 0x06, 0x3e, 0xdd, 0xdf, 0x86, 0xbd,
	0x17, 0x4b, 0x91, 0x3c, 0x20, 0xcb, 0x97, 0xbd, 0x52, 0x10, 0x41, 0x3d,
	0xed, 0xf5, 0x44, 0x3d, 0xcc, 0xd2, 0xed, 0x3d, 0x5f, 0xbc, 0x61, 0x3d,
	0x15, 0xac, 0x08, 0xbd, 0xa4, 0x36, 0xd1, 0x3d, 0xaa, 0xab, 0x7d, 0x3d,
	0xea, 0x82, 0xb1, 0xbd, 0x2b, 0x0e, 0x6c, 0x3d, 0xfb, 0xf1, 0x81, 0xbe,
	0x0a, 0xa2, 0xcf, 0xbe, 0x9c, 0x90, 0xeb, 0xbe, 0xe3, 0x20, 0x0a, 0xbf,
	0x37, 0xd7, 0xb0, 0x3d, 0xbb, 0xb8, 0x1c, 0xbd, 0x9d, 0x5f, 0xce, 0x3c,
	0x86, 0x7d, 0xcd, 0x39, 0xc0, 0xee, 0xb3, 0x3d, 0xb8, 0x40, 0x16, 0x3d,
	0xbc, 0x5b, 0x57, 0x3d, 0xa2, 0xee, 0xfd, 0xbd, 0x2a, 0xf6, 0x0f, 0x3e,
	0x80, 0xbe, 0x1b, 0x3e, 0xba, 0x02, 0x40, 0xbd, 0x70, 0xfc, 0x43, 0x3e,
	0x9d, 0xbb, 0x3c, 0x3e, 0xc7, 0xa8, 0xcf, 0xbc, 0x04, 0xd3, 0x27, 0x3a,
	0xe0, 0xd1, 0x82, 0xbe, 0xec, 0x3f, 0xbd, 0xbe, 0xbb, 0x66, 0x51, 0xbe,
	0x66, 0x24, 0xd2, 0xbe, 0xf7, 0x73, 0xa2, 0xbe, 0xf7, 0x0b, 0x9f, 0x3d,
	0xe8, 0xda, 0x66, 0x3d, 0xee, 0x37, 0x95, 0x3c, 0xad, 0x4b, 0x2d, 0x3e,
	0xa4, 0xcd, 0x94, 0x3d, 0x85, 0x3a, 0x84, 0xbd, 0xd4, 0x4f, 0x68, 0xbe,
	0xb7, 0xa5, 0x25, 0xbe, 0x35, 0xc6, 0xbf, 0x3d, 0x29, 0x41, 0x0b, 0x3d,
	0x99, 0x4f, 0x61, 0x3c, 0x20, 0x00, 0x94, 0x3d, 0xf5, 0xf0, 0x37, 0x3d,
	0xa7, 0xfe, 0x26, 0xbe, 0x1a, 0x71, 0x64, 0xbd, 0x7f, 0x87, 0x01, 0xbe,
	0x0c, 0xcc, 0x85, 0xbe, 0x20, 0x8c, 0xe2, 0xbe, 0x66, 0x16, 0x05, 0xbf,
	0x43, 0xce, 0x1c, 0xbf, 0x09, 0xa7, 0x2c, 0x3e, 0x54, 0xd1, 0x3d, 0x3e,
	0x42, 0x46, 0x0e, 0x3e, 0x8f, 0x67, 0x8f, 0x3e, 0x6f, 0x98, 0x43, 0x3e,
	0x1f, 0xe3, 0x12, 0x3d, 0x68, 0xdf, 0x08, 0xbc, 0x18, 0xa8, 0x8d, 0xbc,
	0xf9, 0xb3, 0xa6, 0x3c, 0xc5, 0x12, 0x29, 0x3e, 0x48, 0xf0, 0xca, 0x3d,
	0x53, 0x4e, 0x86, 0x3a, 0xfb, 0x85, 0x94, 0xbd, 0x8a, 0x5a, 0x9d, 0xbe,
	0x7a, 0xcd, 0x27, 0xbe, 0x84, 0x30, 0xba, 0xbe, 0x85, 0xee, 0xaf, 0xbe,
	0xce, 0xd9, 0x06, 0xbf, 0xee, 0x76, 0x2d, 0xbf, 0xb5, 0x63, 0x1c, 0xbf,
	0x08, 0x63, 0xb0, 0x3d, 0xfc, 0xfd, 0x49, 0x3e, 0x82, 0x40, 0x17, 0x3e,
	0x3f, 0x00, 0x54, 0x3e, 0xaf, 0x05, 0x44, 0x3e, 0x15, 0x08, 0x43, 0x3e,
	0xb8, 0x70, 0xce, 0xbd, 0x17, 0x05, 0x90, 0x3d, 0xca, 0x3f, 0x2d, 0x3d,
	0x83, 0x62, 0x3a, 0x3d, 0xa5, 0x17, 0xd7, 0xbc, 0x4f, 0x0c, 0xb7, 0xbd,
	0x76, 0x20, 0x27, 0xbe, 0x63, 0x40, 0x9f, 0xbe, 0x35, 0xc8, 0xac, 0xbe,
	0x45, 0x5b, 0xfd, 0xbe, 0xef, 0xb0, 0xea, 0xbe, 0xae, 0x70, 0x02, 0xbf,
	0x82, 0x7c, 0x17, 0xbf, 0xae, 0xe9, 0x01, 0xbf, 0x82, 0x28, 0x4c, 0x3d,
	0x18, 0x4d, 0x72, 0x3d, 0x25, 0x31, 0xba, 0x3d, 0x88, 0x66, 0x5b, 0x3e,
	0x3f, 0x0f, 0x04, 0x3e, 0x68, 0x27, 0x85, 0x3e, 0x07, 0x88, 0xb6, 0x3d,
	0x23, 0x31, 0x8d, 0x3c, 0x6a, 0xb4, 0xd7, 0x3d, 0x6b, 0x7c, 0xf4, 0x3b,
	0x29, 0xcc, 0x8f, 0xbe, 0x57, 0x51, 0xb5, 0xbd, 0xef, 0x8c, 0x77, 0xbe,
	0x19, 0x0d, 0xa6, 0xbe, 0x08, 0x51, 0xc7, 0xbe, 0xa9, 0xf4, 0x50, 0xbe,
	0xb7, 0xaf, 0x98, 0xbe, 0x9a, 0x31, 0xd8, 0xbe, 0xdd, 0xd1, 0x03, 0xbf,
	0xac, 0x36, 0xf1, 0xbe, 0xb9, 0xf5, 0x49, 0xbe, 0xd3, 0x71, 0x33, 0xbe,
	0xde, 0xb8, 0x63, 0x3e, 0x6f, 0x2c, 0x5c, 0x3e, 0xa0, 0xde, 0x22, 0x3e,
	0x54, 0xb8, 0x8c, 0x3e, 0xf5, 0x6f, 0x81, 0x3e, 0xa1, 0xd2, 0x25, 0xbe,
	0x01, 0xe1, 0x8a, 0xbd, 0x8c, 0x97, 0x9e, 0xbd, 0x75, 0x71, 0x54, 0xbe,
	0x14, 0xcc, 0xb7, 0xbd, 0x20, 0xb3, 0x1b, 0xbe, 0xb4, 0x01, 0x93, 0xbe,
	0x14, 0x40, 0x2c, 0xbe, 0x6e, 0x7b, 0x09, 0xbe, 0x15, 0x4e, 0x15, 0xbe,
	0x18, 0xf9, 0x9a, 0xbe, 0x82, 0xa0, 0x3d, 0xbe, 0xfd, 0x0c, 0x1a, 0xbe,
	0xc4, 0xee, 0x40, 0xbe, 0x8e, 0x0f, 0x22, 0xbd, 0x61, 0x98, 0x1b, 0x3e,
	0x95, 0x56, 0x5c, 0x3e, 0xf5, 0x46, 0x6d, 0x3e, 0x02, 0x0d, 0x78, 0x3d,
	0x3c, 0x70, 0x85, 0x3d, 0x60, 0x37, 0x35, 0xbe, 0xfd, 0xc7, 0x55, 0xbd,
	0x31, 0x9c, 0xa4, 0xbd, 0x0c, 0xee, 0x31, 0x3d, 0x9c, 0x34, 0x92, 0x3d,
	0x79, 0x89, 0xb3, 0x3c, 0xb1, 0x8d, 0x9b, 0xbd, 0x4c, 0x4a, 0x4c, 0x3e,
	0x81, 0x86, 0x86, 0x3e, 0x54, 0xfb, 0x8f, 0x3e, 0xef, 0x05, 0xea, 0xbc,
	0xe3, 0x39, 0x37, 0x3c, 0xe4, 0x90, 0xce, 0xbd, 0x72, 0x1d, 0xf2, 0x3d,
	0x7f, 0xb1, 0x18, 0x3e, 0xb9, 0x55, 0x8c, 0x3e, 0x4d, 0x84, 0xad, 0x3e,
	0x76, 0x51, 0x47, 0x3e, 0xdc, 0xb9, 0x80, 0x3d, 0x41, 0x0b, 0x65, 0xbd,
	0x2b, 0x65, 0x62, 0xbd, 0x6a, 0x3c, 0x19, 0x3e, 0x71, 0xf7, 0x49, 0x3c,
	0x28, 0x4a, 0xec, 0x3d, 0xf8, 0x33, 0x6b, 0x3e, 0xbc, 0x2b, 0x90, 0x3d,
	0x9f, 0x2c, 0x7f, 0x3e, 0xfc, 0xbf, 0xde, 0x3d, 0xa3, 0xcd, 0x6b, 0x3e,
	0x15, 0x30, 0x8f, 0x3e, 0xa9, 0xd4, 0x81, 0x3e, 0x5e, 0x45, 0x88, 0x3d,
	0x4b, 0x58, 0x4c, 0xbd, 0x6f, 0xd5, 0xd9, 0x3e, 0xba, 0xd7, 0xe8, 0x3e,
	0x6d, 0x45, 0xda, 0x3e, 0x30, 0x04, 0x07, 0x3e, 0xf9, 0xf2, 0x71, 0xbe,
	0xe8, 0xef, 0x80, 0xbd, 0x77, 0x2c, 0x71, 0xbd, 0x8f, 0x72, 0x3b, 0xbd,
	0xef, 0xe8, 0xed, 0x3c, 0x0c, 0x29, 0x53, 0x3e, 0xc9, 0x17, 0x6f, 0x3e,
	0xbd, 0xd8, 0x8c, 0x3e, 0x05, 0x26, 0x35, 0x3e, 0x6e, 0xb1, 0x90, 0x3e,
	0x39, 0x9c, 0x93, 0x3d, 0x73, 0x61, 0x1a, 0x3e, 0x54, 0x6d, 0xd1, 0x3d,
	0x02, 0x08, 0x15, 0x3e, 0x26, 0xd0, 0x17, 0x3e, 0xac, 0x14, 0x59, 0x3e,
	0xf8, 0x3e, 0x36, 0x3f, 0x79, 0x9a, 0xcb, 0x3e, 0xb4, 0x23, 0x69, 0x3e,
	0xbf, 0x85, 0x2a, 0x3e, 0x79, 0xe8, 0xbd, 0xbd, 0x2c, 0x8b, 0xd3, 0xbc,
	0xc8, 0x8d, 0x2e, 0xbe, 0x80, 0xdd, 0xaa, 0x3d, 0x66, 0xab, 0xdd, 0x3d,
	0xef, 0x44, 0x10, 0x3e, 0x93, 0x8f, 0x35, 0x3e, 0x76, 0x96, 0x37, 0x3e,
	0xc9, 0xd5, 0x26, 0x3e, 0x98, 0xd2, 0xdb, 0x3d, 0xe1, 0x0b, 0x76, 0xbc,
	0x8d, 0xe6, 0x55, 0x3d, 0x00, 0x7d, 0x1a, 0x3d, 0x3f, 0x02, 0x8d, 0x3d,
	0x2f, 0xcb, 0x42, 0x3e, 0x84, 0xb2, 0x8a, 0x3e, 0x02, 0x68, 0x70, 0x3d,
	0x55, 0xf8, 0x38, 0x3e, 0x14, 0x37, 0xb0, 0x3d, 0xc9, 0x97, 0x16, 0x3e,
	0xb6, 0x1d, 0x41, 0x3d, 0x90, 0x17, 0x9f, 0x3d, 0x9a, 0x6d, 0x2b, 0x3e,
	0x06, 0xb1, 0xa2, 0x3d, 0xf8, 0x9a, 0x53, 0x3e, 0xb6, 0x5c, 0x02, 0x3e,
	0xac, 0x65, 0x9b, 0x3b, 0xa0, 0xbd, 0x8e, 0xbd, 0xdb, 0x95, 0x95, 0xbd,
	0x9b, 0xda, 0x31, 0xbd, 0xa6, 0xf4, 0xbc, 0x3d, 0x01, 0x27, 0x10, 0x3d,
	0x10, 0xa6, 0xc5, 0x3b, 0x8f, 0x64, 0x3c, 0xbe, 0x0d, 0xb5, 0xd9, 0xbe,
	0xbe, 0x13, 0x17, 0xbf, 0xf2, 0xc5, 0x27, 0x3e, 0xf2, 0x30, 0x1d, 0x3e,
	0x7a, 0x90, 0xb9, 0x3d, 0x1e, 0x6a, 0xda, 0x3d, 0x45, 0x91, 0x10, 0x3e,
	0x00, 0x03, 0x19, 0x3e, 0xa7, 0x26, 0x18, 0x3d, 0xa3, 0xdb, 0x89, 0x3d,
	0x0b, 0xed, 0x22, 0x3d, 0xcb, 0x49, 0x5c, 0xbc, 0x98, 0x6e, 0x12, 0x3c,
	0xbc, 0xfe, 0x1f, 0x3d, 0x4d, 0xaa, 0x51, 0x3d, 0x3e, 0x1c, 0xff, 0x39,
	0xbf, 0x2a, 0xa7, 0x3d, 0x28, 0x20, 0x1b, 0x3e, 0xb3, 0x1c, 0x1b, 0xbe,
	0x2e, 0x23, 0x75, 0xbe, 0x66, 0x64, 0x4c, 0xbe, 0x03, 0x19, 0xd6, 0xbe,
	0x90, 0xf8, 0x41, 0x3a, 0x27, 0x5c, 0x84, 0x3d, 0x1c, 0x7e, 0x2d, 0x3d,
	0x1b, 0xc6, 0x1b, 0x3e, 0x42, 0x88, 0x81, 0x3e, 0x55, 0x66, 0x02, 0x3e,
	0xfe, 0x7f, 0x73, 0x3e, 0x68, 0xc9, 0x67, 0x3e, 0x6f, 0xd9, 0x32, 0xbd,
	0x83, 0x61, 0x94, 0x3d, 0x30, 0xba, 0xbd, 0x3d, 0x2f, 0x84, 0x01, 0x3e,
	0x1e, 0xca, 0x69, 0x3c, 0x0c, 0x28, 0x11, 0x3c, 0xce, 0xe7, 0x05, 0xbe,
	0x55, 0x18, 0x22, 0xbe, 0xa1, 0xe2, 0x7b, 0xbe, 0xc1, 0x8b, 0x21, 0xbe,
	0x1b, 0xd3, 0xd5, 0xbd, 0x07, 0x8b, 0x31, 0xbe, 0xa0, 0xb8, 0x95, 0x3d,
	0x22, 0x86, 0x2b, 0x3d, 0x06, 0x50, 0x31, 0xbd, 0x48, 0x7a, 0xd7, 0xbb,
	0xae, 0xc0, 0x2c, 0x3d, 0xaa, 0x0e, 0xc5, 0x3d, 0x92, 0x3a, 0xe0, 0x3d,
	0xf7, 0x9e, 0x46, 0x3e, 0x6f, 0xa6, 0xb4, 0xbc, 0x61, 0x48, 0x3c, 0x3d,
	0xe9, 0x1b, 0x9f, 0xbd, 0xf5, 0x17, 0xa9, 0x3c, 0x60, 0xa5, 0x85, 0xbc,
	0x99, 0x07, 0x02, 0xbe, 0x41, 0x24, 0x4a, 0xbd, 0x02, 0x38, 0x4f, 0xbe,
	0x3f, 0x9e, 0x67, 0xbe, 0xb6, 0x90, 0x18, 0xbe, 0xc0, 0x31, 0xff, 0x3c,
	0x4e, 0xee, 0xfa, 0x3a, 0xf3, 0xe9, 0x18, 0xbe, 0x2d, 0xa2, 0x0f, 0xbe,
	0x7e, 0x54, 0x0a, 0xbe, 0x52, 0x8d, 0xb3, 0xbd, 0xc6, 0x5b, 0x29, 0x3d,
	0xc5, 0x6a, 0xd5, 0x3c, 0x86, 0x1f, 0xa7, 0xbc, 0x60, 0x8a, 0xd3, 0x3c,
	0x17, 0x76, 0x71, 0x3d, 0xeb, 0xd4, 0xe8, 0x3d, 0x4c, 0x2d, 0xef, 0x3d,
	0x86, 0xfb, 0x91, 0xbd, 0xe6, 0xd9, 0x94, 0xbd, 0xee, 0xca, 0x5e, 0xbd,
	0xb8, 0x9c, 0x21, 0x3d, 0x46, 0x8c, 0xbf, 0xbd, 0xcb, 0xc1, 0xb0, 0xbd,
	0x42, 0xc9, 0x5f, 0xbd, 0xe4, 0xc3, 0xf8, 0x3c, 0x37, 0x24, 0x26, 0xbd,
	0x8f, 0x76, 0x3e, 0xbe, 0x2f, 0x9c, 0x98, 0xbe, 0xe0, 0xba, 0x88, 0xbe,
	0x18, 0xf8, 0x98, 0xbe, 0xc3, 0xe2, 0x11, 0xbe, 0x87, 0x18, 0x04, 0xbe,
	0xfa, 0xa5, 0x3a, 0xbd, 0xf6, 0xd7, 0xfb, 0xbd, 0xe5, 0x12, 0x1a, 0xbe,
	0x76, 0x21, 0x09, 0xbe, 0xfd, 0xee, 0x0a, 0x3d, 0xfe, 0xaf, 0x96, 0xbc,
	0xd7, 0xc4, 0x87, 0xbd, 0x61, 0xbd, 0x92, 0x3b, 0xe4, 0xae, 0xdd, 0x3d,
	0x69, 0x41, 0x2b, 0xbd, 0x13, 0xf3, 0x5e, 0x3d, 0xfa, 0xb2, 0x33, 0x3e,
	0x1c, 0xcd, 0x41, 0x3d, 0x37, 0xa3, 0x0b, 0xbe, 0x3d, 0xc0, 0x5e, 0xbe,
	0xc1, 0xdf, 0x50, 0xbe, 0xde, 0xb0, 0xae, 0xbe, 0xe0, 0xc3, 0xb8, 0xbe,
	0x4b, 0x74, 0x5f, 0xbe, 0xf9, 0x8c, 0x64, 0xbe, 0x19, 0x2d, 0x8d, 0xbe,
	0x11, 0x0a, 0x94, 0xbe, 0x7f, 0xe9, 0x90, 0xbe, 0xcd, 0xc6, 0x9e, 0xbe,
	0xc2, 0x7e, 0x15, 0xbe, 0xa9, 0x33, 0x30, 0xbe, 0x4e, 0xc6, 0x70, 0xbd,
	0x7c, 0x80, 0x03, 0xbc, 0x1b, 0x53, 0xef, 0xbc, 0xc4, 0xec, 0xc7, 0x3c,
	0x37, 0x13, 0x10, 0xbd, 0x00, 0x73, 0x66, 0x3c, 0x97, 0xef, 0x90, 0x3d,
	0xa1, 0xef, 0x1f, 0xbd, 0x44, 0x3d, 0x92, 0xbe, 0x80, 0x8a, 0x82, 0xbe,
	0x85, 0x52, 0xd6, 0xbe, 0x47, 0x6c, 0xdf, 0xbe, 0xdd, 0xb5, 0xcc, 0xbe,
	0x87, 0xb9, 0xa8, 0xbe, 0x88, 0x67, 0xe0, 0xbe, 0xb4, 0x9e, 0xe4, 0xbe,
	0xa1, 0xd6, 0xf2, 0xbe, 0xb3, 0xcf, 0x0b, 0xbf, 0x62, 0x33, 0xc6, 0xbe,
	0x24, 0x76, 0x91, 0xbe, 0xfa, 0x04, 0x46, 0xbe, 0xc0, 0x9e, 0x79, 0xbe,
	0xd6, 0xe3, 0x50, 0xbe, 0x42, 0x03, 0x4d, 0x3c, 0x5a, 0x12, 0x91, 0xbd,
	0x03, 0x94, 0x7b, 0x3d, 0x81, 0x74, 0x42, 0xbd, 0xc7, 0xd7, 0x77, 0xbc,
	0x83, 0xfd, 0x1d, 0xbf, 0xb1, 0xc7, 0xde, 0xbe, 0x61, 0x08, 0x05, 0xbf,
	0xcc, 0xc3, 0xfa, 0xbe, 0x58, 0x22, 0xe3, 0xbe, 0x6e, 0x96, 0xda, 0xbe,
	0x0d, 0xbb, 0x94, 0xbe, 0x76, 0x54, 0xae, 0xbe, 0x0a, 0x51, 0xa7, 0xbe,
	0xb1, 0x89, 0xc6, 0xbe, 0x7f, 0xd1, 0x76, 0xbe, 0x1b, 0xfa, 0xe1, 0xbe,
	0x6c, 0x21, 0xd9, 0xbe, 0x64, 0x26, 0xb7, 0xbd, 0xf4, 0xac, 0xc0, 0xbd,
	0x93, 0x69, 0x17, 0xbe, 0xab, 0xf3, 0x4d, 0xbe, 0x9f, 0x5b, 0x3e, 0xbe,
	0xe4, 0x49, 0x14, 0x3d, 0xfc, 0x8f, 0xe2, 0x3d, 0x68, 0x7a, 0x23, 0xbf,
	0xd5, 0x44, 0xf7, 0xbe, 0xa0, 0x01, 0x07, 0xbf, 0xac, 0x48, 0xda, 0xbe,
	0x1a, 0x56, 0xbc, 0xbe, 0x58, 0xc1, 0xa8, 0xbe, 0xd7, 0xa4, 0x59, 0xbe,
	0x1a, 0xf4, 0x21, 0xbe, 0x61, 0xee, 0x37, 0xbe, 0xd8, 0x50, 0x8b, 0xbd,
	0xca, 0x4b, 0xab, 0xbd, 0x06, 0x14, 0x24, 0xbe, 0xb2, 0xf7, 0x91, 0xbe,
	0xe9, 0xeb, 0x5b, 0xbe, 0xb8, 0xc5, 0x8c, 0xbe, 0x23, 0xee, 0x89, 0xbe,
	0x74, 0x15, 0x41, 0xbe, 0x68, 0xeb, 0xfd, 0xbd, 0x54, 0x84, 0xaf, 0xbd,
	0x32, 0x86, 0x17, 0x3e, 0xb7, 0x1c, 0x43, 0xbf, 0xac, 0x04, 0x0c, 0xbf,
	0x92, 0x98, 0x75, 0xbe, 0xe4, 0x75, 0x66, 0xbe, 0xb7, 0xb8, 0x75, 0xbd,
	0xcc, 0x9a, 0x18, 0x3d, 0x5d, 0x54, 0x94, 0xbd, 0x54, 0x45, 0xcc, 0xbd,
	0x91, 0xbb, 0xc0, 0x3c, 0x8d, 0x64, 0xfd, 0xbc, 0x38, 0x8b, 0xfb, 0x3b,
	0xb0, 0xcc, 0xcf, 0xbd, 0x6b, 0x91, 0x95, 0xbd, 0x7e, 0x48, 0xdf, 0xbd,
	0x56, 0x35, 0xbb, 0xbd, 0x7b, 0x91, 0xed, 0xbd, 0xd8, 0x05, 0xb2, 0xbd,
	0xd0, 0x98, 0x73, 0xbc, 0x28, 0x89, 0x06, 0xbe, 0x57, 0x47, 0x74, 0x3d,
	0x98, 0xcc, 0x5b, 0xbe, 0xff, 0x87, 0xf7, 0xbd, 0x15, 0xd1, 0xa7, 0x3d,
	0x4d, 0x11, 0xb4, 0xbd, 0x16, 0xbe, 0xdc, 0x3d, 0xe3, 0xb8, 0x81, 0x3d,
	0xd1, 0x94, 0x33, 0xbd, 0xfa, 0x66, 0xbb, 0x3b, 0x66, 0x5b, 0x88, 0x3d,
	0x4d, 0x6f, 0x20, 0x3d, 0x4c, 0xe0, 0x29, 0x3e, 0x95, 0x29, 0x85, 0x3c,
	0x47, 0x0f, 0x00, 0xbd, 0x93, 0xcf, 0x25, 0xbc, 0x97, 0x7d, 0xd0, 0x3d,
	0xbe, 0x78, 0x71, 0x3d, 0xe5, 0xbb, 0xb7, 0x3b, 0xff, 0x2c, 0xc9, 0xbd,
	0xc8, 0xe6, 0x3e, 0xbe, 0xfc, 0xc3, 0x17, 0xbe, 0x5a, 0x42, 0x7e, 0xbb,
	0x18, 0x3d, 0x6e, 0x3d, 0x05, 0xd6, 0xb3, 0x3d, 0x99, 0x5f, 0xb8, 0x3d,
	0xa5, 0x13, 0x3d, 0x3e, 0xb9, 0x8c, 0x70, 0x3d, 0x8a, 0xc2, 0xd7, 0x3d,
	0xf9, 0x85, 0x50, 0x3e, 0x49, 0x65, 0x09, 0x3e, 0x8f, 0x28, 0x3f, 0x3e,
	0x94, 0x20, 0xb7, 0x3c, 0x90, 0x46, 0x44, 0xbd, 0x3a, 0x91, 0x31, 0xbb,
	0x0d, 0x9d, 0x4e, 0xbc, 0xd9, 0x67, 0x01, 0x3e, 0xaf, 0xd5, 0x3e, 0x3c,
	0x2b, 0x1e, 0xbd, 0xbd, 0xba, 0x1c, 0x05, 0xbe, 0x09, 0x98, 0x89, 0xbe,
	0xae, 0x0a, 0x92, 0x3d, 0xc7, 0xb9, 0xf5, 0x3d, 0x7c, 0x38, 0x19, 0x3e,
	0xbc, 0xed, 0x10, 0x3d, 0x24, 0x05, 0xb3, 0x3d, 0x26, 0x09, 0x17, 0x3e,
	0x19, 0x11, 0x5e, 0x3d, 0x6e, 0x93, 0x84, 0x3e, 0x1e, 0xe0, 0x2e, 0x3e,
	0x54, 0x1e, 0x34, 0x3e, 0xd5, 0x55, 0xef, 0x3c, 0xf8, 0xb4, 0x2f, 0x3e,
	0x04, 0xa5, 0x99, 0xbb, 0xbe, 0xe2, 0x2f, 0x3e, 0x43, 0x20, 0xee, 0x3d,
	0x84, 0x4b, 0x09, 0x3d, 0x7c, 0x7d, 0x8f, 0x3d, 0x95, 0xd8, 0x89, 0x3d,
	0x3d, 0x62, 0x0b, 0x3c, 0x1d, 0x34, 0x3b, 0xbe, 0xde, 0xdd, 0x37, 0x3d,
	0xd4, 0x56, 0x73, 0x3e, 0x60, 0xca, 0x90, 0x3e, 0x24, 0xae, 0x09, 0x3e,
	0xd3, 0x0a, 0x88, 0x3d, 0xc4, 0x90, 0x0e, 0xbd, 0xbe, 0x15, 0xce, 0x3d,
	0xe8, 0xbe, 0xf9, 0x3d, 0x21, 0xbd, 0x99, 0x3e, 0xde, 0x09, 0x8d, 0x3e,
	0x0f, 0x4b, 0x59, 0x3e, 0x52, 0xaf, 0x0f, 0x3e, 0xce, 0xa8, 0xf0, 0x3d,
	0xd1, 0x3c, 0xd3, 0x3d, 0xba, 0xed, 0x6c, 0x3e, 0x73, 0x79, 0x43, 0x3d,
	0xd0, 0xd5, 0xae, 0x3d, 0xa6, 0x55, 0x3c, 0x3a, 0x48, 0x0d, 0x4c, 0xbb,
	0x1a, 0x10, 0x89, 0xbd, 0xf1, 0x5f, 0xdd, 0x3d, 0x8b, 0x73, 0x22, 0x3e,
	0xa2, 0x2f, 0x03, 0x3e, 0xe1, 0xd3, 0x3b, 0x3e, 0x8d, 0x5b, 0x2e, 0x3e,
	0x4e, 0x47, 0xf0, 0x3c, 0x61, 0x33, 0xac, 0x3d, 0xf3, 0xef, 0x39, 0x3e,
	0x41, 0x05, 0x6d, 0x3e, 0x0f, 0x5a, 0x0f, 0x3e, 0x51, 0xe4, 0x49, 0x3d,
	0xa3, 0x0b, 0x2d, 0x3e, 0x2a, 0x91, 0x8f, 0x3e, 0x95, 0xe2, 0x53, 0x3e,
	0x58, 0xa9, 0x5d, 0x3e, 0x37, 0x3e, 0x46, 0x3e, 0x25, 0xed, 0x7c, 0x3e,
	0x55, 0xfe, 0x27, 0x3e, 0xb8, 0xaa, 0x16, 0x3e, 0x2b, 0xc5, 0x74, 0x3e,
	0xcd, 0x0d, 0x7d, 0x3e, 0x88, 0x0b, 0x09, 0x3e, 0xe0, 0xad, 0xad, 0x3e,
	0xaa, 0x77, 0x05, 0x3e, 0x2f, 0x94, 0x0a, 0x3e, 0x3a, 0x40, 0x68, 0x3e,
	0xe6, 0x31, 0x43, 0x3e, 0x0f, 0xdc, 0x68, 0x3e, 0x4d, 0x0c, 0x7d, 0x3e,
	0xe5, 0x59, 0x0e, 0x3e, 0x3a, 0xf2, 0x3c, 0x3e, 0x24, 0xaa, 0x2e, 0x3e,
	0x10, 0xca, 0x90, 0x3e, 0x6b, 0xac, 0x02, 0x3e, 0xe3, 0xe0, 0x81, 0x3e,
	0xfe, 0x6f, 0x7f, 0x3e, 0xde, 0x65, 0x13, 0x3e, 0xe9, 0x80, 0x9e, 0x3d,
	0x53, 0x5f, 0xa5, 0x3e, 0xc3, 0x39, 0x73, 0x3e, 0x34, 0xaf, 0x8d, 0x3e,
	0x0a, 0x8b, 0x32, 0x3e, 0xdb, 0xac, 0xa5, 0x3e, 0xac, 0x3f, 0x50, 0x3e,
	0x03, 0x0b, 0xd6, 0x3d, 0x01, 0xf3, 0x24, 0x3e, 0x0d, 0xb6, 0x52, 0x3e,
	0xaf, 0xff, 0x74, 0x3e, 0x0b, 0x33, 0x03, 0x3e, 0x0a, 0x59, 0x29, 0x3e,
	0x2f, 0xf1, 0x1e, 0x3e, 0x73, 0x6d, 0x87, 0x3e, 0xf2, 0x30, 0x11, 0x3e,
	0x20, 0x0d, 0x99, 0x3e, 0xda, 0x63, 0xcb, 0x3e, 0x44, 0x32, 0x92, 0x3e,
	0x62, 0x5a, 0x90, 0x3e, 0x80, 0xdb, 0xae, 0x3e, 0x63, 0x6f, 0x65, 0x3e,
	0x6a, 0x20, 0xc0, 0x3e, 0x9f, 0xc5, 0xd2, 0x3e, 0xd3, 0x6f, 0x9e, 0x3d,
	0x94, 0xff, 0x41, 0x3d, 0x02, 0x45, 0x6b, 0x3e, 0x37, 0xa1, 0x1c, 0x3e,
	0x96, 0xf5, 0x73, 0x3e, 0x50, 0x88, 0x84, 0x3b, 0xfc, 0x75, 0x37, 0x3e,
	0xcd, 0x4c, 0x7d, 0x3d, 0xc0, 0xa2, 0x51, 0xbc, 0x6a, 0xdc, 0xe7, 0xbd,
	0x34, 0x96, 0xa9, 0xbd, 0xb4, 0x59, 0x8b, 0x3d, 0x8d, 0x0a, 0x9f, 0x3d,
	0x36, 0xfb, 0x79, 0x3e, 0x9d, 0xb4, 0x83, 0x3e, 0x57, 0xa3, 0x97, 0x3e,
	0x85, 0x82, 0xb1, 0x3e, 0x9b, 0xb0, 0x9d, 0x3e, 0xd4, 0x28, 0xc0, 0x3e,
	0x4b, 0xcc, 0xdb, 0x3e, 0xac, 0x61, 0x94, 0xbd, 0x74, 0x6f, 0x98, 0x3d,
	0xe6, 0x90, 0x84, 0x3e, 0x2e, 0x87, 0x1a, 0x3c, 0x8c, 0x93, 0x74, 0x3e,
	0xbd, 0xfe, 0xa1, 0xbc, 0x3c, 0x6b, 0xbb, 0x3c, 0x66, 0xbb, 0x23, 0x3d,
	0xf4, 0x16, 0xa0, 0xbd, 0x4d, 0x6b, 0x05, 0x3d, 0xad, 0x2c, 0xe7, 0xbd,
	0x1e, 0xac, 0x91, 0xbd, 0x7f, 0xce, 0x5a, 0xbe, 0x8e, 0xb8, 0xd2, 0xbd,
	0x6f, 0xda, 0xd6, 0x3d, 0x1a, 0xb8, 0xc7, 0x3d, 0x7d, 0xb1, 0x8d, 0x3d,
	0x6e, 0xee, 0x88, 0x3e, 0x1a, 0x82, 0xbc, 0x3e, 0xa2, 0x4b, 0xff, 0x3e,
	0x28, 0x39, 0x43, 0x3e, 0x40, 0xb1, 0x3c, 0x3e, 0xa6, 0x0a, 0x3c, 0x3e,
	0x9a, 0x7c, 0xa5, 0x3d, 0x71, 0x5b, 0x8b, 0x3e, 0x04, 0xe0, 0xde, 0x3d,
	0x4d, 0x23, 0x47, 0x3e, 0x2a, 0x22, 0xfe, 0xbb, 0xab, 0x79, 0x6e, 0x3d,
	0x94, 0x5a, 0x30, 0x3e, 0x17, 0x84, 0x37, 0xbd, 0x0f, 0x33, 0x9e, 0x3b,
	0xd4, 0xc4, 0xf4, 0x3d, 0x8b, 0x2f, 0xe9, 0x3d, 0xd4, 0x46, 0x5b, 0x3d,
	0x2d, 0x7e, 0x4f, 0xbd, 0xab, 0xd6, 0x0c, 0x3e, 0xa2, 0xbe, 0x04, 0x3e,
	0x87, 0xc7, 0x78, 0xbe, 0xd6, 0xcd, 0xea, 0xbe, 0x63, 0x7f, 0x92, 0xbc,
	0x99, 0x5c, 0xef, 0xbc, 0x32, 0xe3, 0xaf, 0x3d, 0xe3, 0x2b, 0x07, 0x3e,
	0x70, 0x2f, 0x87, 0x3e, 0x48, 0x26, 0xa3, 0x3e, 0x7b, 0x6c, 0x82, 0x3e,
	0x67, 0x41, 0x17, 0x3e, 0x32, 0xe2, 0xc4, 0x3d, 0x7c, 0x23, 0xf7, 0x3d,
	0xa5, 0x51, 0x03, 0xbc, 0x05, 0x49, 0xac, 0x3d, 0x07, 0x54, 0xdd, 0x3d,
	0x67, 0x23, 0x85, 0xbd, 0x54, 0x04, 0xf2, 0x3d, 0x52, 0x1a, 0xb9, 0xbc,
	0x40, 0xab, 0xa2, 0xbb, 0x37, 0x5b, 0x6b, 0x3c, 0xad, 0xe7, 0xc9, 0xbc,
	0xa2, 0x9d, 0x2f, 0xbe, 0x65, 0x42, 0x81, 0x3d, 0xb7, 0xb8, 0x2a, 0xbd,
	0x01, 0x72, 0x7f, 0x3b, 0x80, 0x0a, 0x08, 0x3e, 0xa9, 0x67, 0x33, 0x3e,
	0x3d, 0x25, 0x4b, 0x3e, 0x70, 0x25, 0xa1, 0x3e, 0x5d, 0x24, 0x33, 0x3e,
	0xea, 0x73, 0x6a, 0x3e, 0xa0, 0x41, 0x09, 0x3e, 0x74, 0x66, 0xeb, 0x3d,
	0x36, 0xa7, 0xc1, 0x3c, 0x92, 0xe8, 0x03, 0xbb, 0x6c, 0xe9, 0x48, 0x3e,
	0xe3, 0x9f, 0xe0, 0x3d, 0x42, 0x06, 0x9c, 0x3d, 0x6f, 0x14, 0xc0, 0xbc,
	0x46, 0x83, 0xb6, 0x3d, 0x17, 0xa6, 0xab, 0x39, 0x96, 0xff, 0xab, 0xbb,
	0xd6, 0x3c, 0xd6, 0xbd, 0x53, 0x44, 0x6b, 0xbe, 0x47, 0x56, 0xef, 0xbc,
	0xe7, 0x3b, 0xc1, 0xbd, 0x7a, 0x65, 0xd7, 0x3d, 0x3a, 0xde, 0x63, 0x3e,
	0xb9, 0xa3, 0x38, 0x3e, 0x94, 0x01, 0x7d, 0x3e, 0xcf, 0x79, 0x98, 0x3d,
	0x32, 0x4c, 0x8e, 0x3d, 0xbe, 0xc5, 0x5b, 0x3d, 0xc9, 0xdb, 0xb0, 0x3d,
	0xc7, 0x65, 0xdf, 0x3d, 0x58, 0xbf, 0x93, 0x3c, 0x0d, 0xb4, 0xdf, 0x3c,
	0x06, 0xf1, 0x26, 0xbc, 0x00, 0xa2, 0x7c, 0xbd, 0xd4, 0xe7, 0xce, 0x3d,
	0xfd, 0xad, 0x53, 0x3e, 0x92, 0x88, 0xb0, 0x3d, 0xca, 0x16, 0x65, 0xbc,
	0xc7, 0x7b, 0x45, 0xbe, 0xcb, 0x48, 0x00, 0xbe, 0x6a, 0xa0, 0x6a, 0xbe,
	0x19, 0xd6, 0x24, 0xbe, 0xce, 0x98, 0x30, 0xbe, 0x3f, 0x4b, 0x67, 0xbe,
	0x83, 0x1f, 0xa9, 0xbd, 0x42, 0x1f, 0x8b, 0x3d, 0xb6, 0x43, 0x49, 0x3e,
	0x66, 0x45, 0x08, 0x3e, 0xf1, 0x31, 0x12, 0x3e, 0xd1, 0xe0, 0xe4, 0x3d,
	0x2d, 0x39, 0x82, 0xbd, 0x29, 0xb5, 0x85, 0xbc, 0x42, 0x56, 0xec, 0x3b,
	0x9b, 0x07, 0xaa, 0x3d, 0x6a, 0xa9, 0x31, 0x3d, 0xa6, 0x79, 0x1c, 0x3e,
	0x1e, 0x36, 0x05, 0x3e, 0xc7, 0x30, 0x1c, 0xbe, 0x92, 0xb1, 0x02, 0xbf,
	0xde, 0xd7, 0xd1, 0xbe, 0x98, 0xde, 0xaa, 0xbe, 0x67, 0xaf, 0xcf, 0xbe,
	0xeb, 0x3f, 0xe6, 0xbe, 0x85, 0x9a, 0x93, 0xbe, 0x7e, 0xba, 0x9f, 0xbd,
	0x04, 0x74, 0x0b, 0xbe, 0xea, 0x4c, 0x98, 0xbb, 0x97, 0x78, 0x19, 0x3e,
	0x65, 0x02, 0x0a, 0x3e, 0x42, 0xd6, 0xf1, 0xbb, 0xcd, 0xac, 0xf6, 0xbb,
	0xce, 0x8e, 0xd0, 0x3d, 0x8a, 0x3d, 0xc8, 0xbb, 0xb5, 0x04, 0x4d, 0x3e,
	0xa0, 0x10, 0x31, 0x3e, 0x79, 0x55, 0x84, 0x3e, 0x7c, 0xbd, 0x4b, 0x3e,
	0x5e, 0x45, 0x1a, 0xbf, 0xba, 0xb9, 0x08, 0xbf, 0x57, 0x81, 0x29, 0xbf,
	0xb7, 0x60, 0xc4, 0xbe, 0x45, 0x89, 0x0d, 0xbe, 0x0b, 0xe4, 0x0e, 0xbe,
	0x23, 0xb9, 0x93, 0xbe, 0xea, 0x0e, 0x62, 0xbd, 0xa6, 0x23, 0x97, 0x3d,
	0xd0, 0x9e, 0x96, 0x3c, 0xa8, 0x50, 0x28, 0xbd, 0x58, 0xe0, 0x5b, 0x3d,
	0x46, 0xaf, 0x6d, 0x3d, 0x8d, 0x54, 0x8c, 0x3d, 0xcb, 0xc9, 0xa4, 0x3d,
	0x10, 0xaf, 0x27, 0x3e, 0x9b, 0x63, 0x9f, 0x3d, 0x4d, 0x7b, 0x0c, 0x3e,
	0xb6, 0x6a, 0x81, 0xbd, 0xbc, 0x42, 0x25, 0x3d, 0xf0, 0x85, 0x02, 0xbf,
	0xb5, 0x4a, 0xb0, 0xbe, 0xed, 0xef, 0xe7, 0xbe, 0xd5, 0x97, 0x25, 0xbd,
	0x1f, 0x4c, 0x9a, 0xbc, 0x64, 0x09, 0xb7, 0xbd, 0x50, 0x78, 0xd3, 0x3c,
	0x84, 0xeb, 0xed, 0xbc, 0x1c, 0xbb, 0x60, 0xbc, 0x95, 0x6b, 0x4b, 0x3d,
	0x3d, 0xdc, 0x7c, 0xbd, 0x78, 0xd4, 0xbd, 0x3d, 0xf5, 0xee, 0x5b, 0xbc,
	0x8c, 0xd9, 0xe4, 0x3c, 0x56, 0xa6, 0x59, 0xbd, 0x5b, 0x58, 0xd7, 0x3c,
	0xcf, 0x3a, 0xce, 0x3b, 0x41, 0x48, 0x70, 0x3d, 0x0a, 0xb4, 0xa5, 0xbe,
	0xc4, 0x6b, 0xa1, 0xbe, 0x3f, 0x59, 0x40, 0xbe, 0xfb, 0x35, 0x56, 0xbe,
	0xff, 0x4a, 0x00, 0xbe, 0x9f, 0x8a, 0x97, 0x3d, 0x24, 0x72, 0xb2, 0x3d,
	0x80, 0xd6, 0x27, 0x3b, 0x66, 0x9f, 0x04, 0xbc, 0x5f, 0x99, 0x4b, 0x3d,
	0x2a, 0x98, 0x1a, 0xbd, 0x8a, 0x97, 0x89, 0x3c, 0x0a, 0x33, 0x19, 0x3e,
	0x7c, 0x3c, 0x36, 0x3e, 0x26, 0x26, 0x24, 0x3d, 0x5e, 0x37, 0x54, 0x3d,
	0x21, 0xd2, 0x54, 0xbd, 0x9a, 0x26, 0xcb, 0x3d, 0x24, 0x46, 0xbf, 0xbc,
	0x23, 0x71, 0x8e, 0xbc, 0xd8, 0xf6, 0xa4, 0xbe, 0xf6, 0x9e, 0xb7, 0xbe,
	0x5d, 0x0c, 0x2b, 0x3d, 0xdf, 0xa8, 0xec, 0x3c, 0x8b, 0x97, 0xd1, 0xbd,
	0xcc, 0x16, 0xb2, 0xbd, 0x36, 0xf1, 0x8a, 0xbd, 0xf3, 0xad, 0x28, 0x3c,
	0xa4, 0x9a, 0x10, 0xbe, 0x29, 0x6c, 0x03, 0xbd, 0x10, 0x0f, 0x5a, 0xbd,
	0xb3, 0x42, 0x0d, 0x3e, 0x96, 0x4d, 0x3a, 0x3d, 0x22, 0xb0, 0xaf, 0x3b,
	0xc4, 0x36, 0x33, 0x3e, 0x6f, 0x2b, 0x3a, 0x3b, 0x97, 0x08, 0xd8, 0x3d,
	0x80, 0x56, 0xf6, 0x3c, 0x7b, 0x1e, 0x95, 0x3d, 0x3c, 0x94, 0xa0, 0x3c,
	0x5d, 0x9f, 0x82, 0xbe, 0x53, 0xac, 0xb9, 0xbe, 0x64, 0xce, 0x83, 0x3e,
	0x0e, 0xf8, 0xe3, 0x3c, 0x33, 0x76, 0x38, 0xbe, 0xad, 0xa6, 0x45, 0xbe,
	0x84, 0x57, 0x29, 0x3c, 0xbf, 0x9d, 0xdd, 0xbc, 0x4f, 0xac, 0x40, 0x3d,
	0xd1, 0x4f, 0xd3, 0x3c, 0x02, 0x3f, 0x22, 0xbd, 0x8f, 0x25, 0x67, 0x3e,
	0x3b, 0x43, 0x98, 0x3d, 0xa8, 0xa8, 0x1f, 0x3d, 0xd0, 0x7a, 0x83, 0xbd,
	0x0c, 0x0c, 0x8e, 0xb9, 0x9a, 0x77, 0xdc, 0xbc, 0xb9, 0x59, 0x9b, 0xbd,
	0x06, 0xf9, 0x87, 0xbd, 0x1f, 0x97, 0xaf, 0x3c, 0xb0, 0xcd, 0xcd, 0xbd,
	0x62, 0x1d, 0x7c, 0xbd, 0x77, 0x24, 0x26, 0xbe, 0xc5, 0x17, 0x1a, 0xbe,
	0x52, 0x7c, 0xbb, 0xbe, 0x03, 0x7f, 0xdd, 0xbd, 0xe8, 0x2a, 0x45, 0xbe,
	0xd9, 0x23, 0x8b, 0xbd, 0xcc, 0xd1, 0xee, 0xbc, 0x0f, 0x3c, 0xb7, 0x3d,
	0xd2, 0x32, 0x6a, 0x3d, 0x09, 0x3c, 0x56, 0x3d, 0x3a, 0x9e, 0x3d, 0x3d,
	0x55, 0x0d, 0x78, 0xbd, 0x74, 0xf3, 0xbe, 0xbc, 0x10, 0xce, 0xd4, 0x3c,
	0x80, 0xe1, 0x55, 0x3c, 0x9b, 0x84, 0x5b, 0x3d, 0x73, 0xfb, 0x6b, 0xbb,
	0x58, 0x48, 0xf9, 0x3d, 0xbd, 0xfd, 0x15, 0x3e, 0x0a, 0xfa, 0xcc, 0x3d,
	0x9b, 0xbb, 0xc3, 0xbe, 0x82, 0xf9, 0x86, 0xbe, 0x50, 0x12, 0x9d, 0xbe,
	0xbd, 0x29, 0x8f, 0xbe, 0xed, 0x29, 0xb6, 0xbe, 0xe8, 0xbe, 0x93, 0xbe,
	0xf9, 0xfb, 0x84, 0xbe, 0x46, 0xe7, 0xec, 0xbd, 0x1b, 0x50, 0x84, 0x3d,
	0xb5, 0x90, 0xf3, 0xbc, 0x22, 0xa4, 0x11, 0xbd, 0x79, 0xdd, 0x14, 0xbe,
	0xa0, 0xf2, 0x0e, 0xbe, 0x72, 0x72, 0xb1, 0x3d, 0x96, 0x03, 0xf9, 0x3c,
	0x42, 0xf6, 0xbf, 0x3d, 0x8c, 0x1b, 0xb6, 0xbc, 0x61, 0xcd, 0x32, 0x3e,
	0x2f, 0x64, 0x3b, 0x3d, 0xe9, 0x27, 0x30, 0x3e, 0x11, 0xb3, 0xd7, 0xbd,
	0x30, 0x8b, 0x6c, 0xbe, 0xfd, 0xd4, 0x38, 0xbe, 0x9d, 0x41, 0xe7, 0xbe,
	0x72, 0x0f, 0xb3, 0xbe, 0xc1, 0xe5, 0x07, 0xbf, 0x94, 0xec, 0x00, 0xbf,
	0xb7, 0xfd, 0xd5, 0xbe, 0xf6, 0xd0, 0xb4, 0xbe, 0x3b, 0x3f, 0x90, 0xbe,
	0x62, 0xc1, 0xaf, 0xbd, 0xc3, 0xcf, 0x14, 0xbd, 0xc2, 0xef, 0x21, 0xbe,
	0xed, 0xee, 0x95, 0x3d, 0xed, 0x46, 0x0f, 0xbd, 0x92, 0x4b, 0x07, 0x3e,
	0x05, 0x1f, 0x57, 0x3e, 0xd7, 0x2f, 0x8c, 0x3e, 0x93, 0x48, 0x83, 0x3e,
	0x66, 0x6e, 0x47, 0x3d, 0x48, 0x39, 0x53, 0xbe, 0xbf, 0xee, 0x9f, 0xbe,
	0x21, 0xd6, 0x66, 0xbe, 0x64, 0xdb, 0x8d, 0xbe, 0x32, 0x2f, 0xc9, 0xbe,
	0xde, 0xaa, 0xa5, 0xbe, 0xfc, 0xa0, 0xe2, 0xbe, 0xf7, 0x5d, 0xde, 0xbe,
	0x2f, 0xcb, 0xc4, 0xbe, 0xcb, 0x30, 0xb7, 0xbe, 0x07, 0x42, 0xb2, 0x3c,
	0x2b, 0x20, 0x2e, 0xbe, 0x85, 0xa2, 0xe9, 0x3d, 0x30, 0x67, 0x0b, 0x3e,
	0x36, 0x54, 0x26, 0x3e, 0x0f, 0x66, 0x2e, 0x3e, 0xe7, 0xaf, 0x75, 0x3e,
	0xd8, 0xdd, 0xd4, 0x3d, 0x3a, 0x6b, 0x2f, 0x3e, 0xd8, 0x8b, 0x20, 0x3d,
	0x26, 0xac, 0x7f, 0xbc, 0x54, 0xce, 0xe9, 0xbd, 0x73, 0xed, 0x79, 0xbe,
	0x90, 0x30, 0x85, 0xbe, 0xef, 0xae, 0x9f, 0xbd, 0xbc, 0xfc, 0x0a, 0xbe,
	0x89, 0x6a, 0x1e, 0xbe, 0x42, 0xea, 0x9e, 0xbd, 0x89, 0x52, 0x2e, 0xbd,
	0xb5, 0x52, 0x48, 0xbb, 0xb1, 0xa3, 0x2a, 0xbd, 0xa2, 0x39, 0x08, 0x3e,
	0x6e, 0xf8, 0x99, 0x3d, 0x25, 0xe0, 0x43, 0x3d, 0x27, 0xfe, 0x60, 0x3d,
	0x9d, 0x64, 0xa9, 0x3d, 0xd2, 0x40, 0xc4, 0xba, 0xa9, 0x85, 0x7a, 0x3d,
	0x44, 0x82, 0x86, 0x3e, 0xc2, 0xbc, 0x93, 0x3e, 0xb6, 0x5c, 0x0a, 0x3e,
	0xb7, 0xd1, 0x2c, 0xbe, 0xce, 0x65, 0x8b, 0xbd, 0xd8, 0x5b, 0x16, 0x3b,
	0x97, 0x5e, 0x12, 0x3d, 0x33, 0x64, 0x82, 0x3c, 0xa5, 0x7e, 0xc4, 0x3d,
	0x9d, 0xeb, 0x95, 0x3e, 0xbf, 0x99, 0x29, 0x3e, 0x6c, 0xc7, 0x7d, 0x3d,
	0xdc, 0xf3, 0x97, 0xbd, 0x4b, 0xc5, 0xd3, 0x3d, 0x24, 0x5c, 0x26, 0x3e,
	0x0e, 0xa1, 0x03, 0xbd, 0x49, 0x71, 0x0b, 0x3e, 0x7d, 0xc5, 0x4d, 0x3e,
	0x96, 0xda, 0xd0, 0xbc, 0x84, 0x8b, 0xfb, 0x3d, 0x2e, 0x8f, 0x05, 0x3e,
	0xf0, 0xd2, 0x08, 0x3e, 0x18, 0x34, 0x63, 0x3d, 0x9b, 0xb4, 0xc2, 0xbd,
	0x3f, 0x1f, 0xda, 0x3b, 0x48, 0x6d, 0x33, 0x3d, 0x26, 0x95, 0x49, 0x3e,
	0xab, 0x4c, 0x5c, 0x3e, 0x84, 0xc4, 0x47, 0x3d, 0x4e, 0x9b, 0x39, 0x3d,
	0x7d, 0xfb, 0xbc, 0x3d, 0x3a, 0xce, 0x9a, 0x3d, 0x0f, 0xbf, 0x9a, 0xbd,
	0x65, 0xb3, 0xa2, 0x3d, 0xb9, 0x68, 0x9d, 0xbc, 0x41, 0xbc, 0x88, 0xbd,
	0xd3, 0xa6, 0xb4, 0x3d, 0xeb, 0xa6, 0xd5, 0x3c, 0x01, 0xa3, 0x8d, 0xbd,
	0x5e, 0x2e, 0xf0, 0x3c, 0xc4, 0x49, 0x10, 0x3d, 0x3c, 0x25, 0x0a, 0xbd,
	0x36, 0xec, 0x20, 0x3d, 0xb3, 0x56, 0xbb, 0xbd, 0x8a, 0xf2, 0xab, 0x3d,
	0x61, 0xc3, 0x56, 0x3e, 0x24, 0x27, 0x84, 0x3e, 0x92, 0x2c, 0x00, 0x3e,
	0x5a, 0x7b, 0x0f, 0x3e, 0xa4, 0x70, 0x6e, 0xbb, 0x4f, 0x01, 0xeb, 0x3c,
	0x2e, 0xa9, 0x3e, 0x3d, 0xcd, 0xc6, 0x4e, 0xbc, 0x52, 0x12, 0x5b, 0x3e,
	0x34, 0xc7, 0x0b, 0xbd, 0x1c, 0x9b, 0x5b, 0xbb, 0x61, 0x97, 0x51, 0xbc,
	0xec, 0x05, 0x82, 0xbc, 0xff, 0x81, 0x71, 0xbd, 0x32, 0xe4, 0xbe, 0x3d,
	0x63, 0x23, 0x85, 0xbe, 0x4f, 0x21, 0xd2, 0xbe, 0x6f, 0xce, 0x64, 0x3e,
	0x98, 0x50, 0xf0, 0xbd, 0x48, 0x26, 0xe4, 0xbc, 0xe6, 0xc6, 0xb2, 0x3e,
	0x44, 0x02, 0x39, 0x3e, 0x48, 0x6d, 0x84, 0x3e, 0xe2, 0x63, 0xec, 0x3d,
	0xa5, 0xb4, 0x85, 0x3d, 0xdd, 0xd6, 0xfa, 0x3d, 0x73, 0x6a, 0x71, 0x3e,
	0x1b, 0x6e, 0xf5, 0x3c, 0x09, 0xa7, 0x9b, 0x3d, 0xda, 0xe0, 0xd0, 0x3d,
	0x81, 0x68, 0x2f, 0x3e, 0x25, 0xf8, 0x1b, 0x3e, 0x29, 0x3b, 0x3b, 0x3d,
	0xf7, 0x39, 0xf4, 0xbd, 0x0f, 0x7a, 0x5a, 0xbe, 0x87, 0x06, 0x9c, 0xbe,
	0x2e, 0x49, 0x09, 0xbf, 0xb9, 0x9f, 0x17, 0xbf, 0x93, 0xbc, 0xc4, 0xbe,
	0x24, 0x57, 0xc7, 0xbe, 0xdc, 0xc4, 0xcb, 0xbe, 0xba, 0xc4, 0x51, 0xbe,
	0x23, 0x73, 0x8f, 0xbe, 0x17, 0xad, 0x97, 0xbe, 0xe5, 0x27, 0xdf, 0xbe,
	0x4d, 0x71, 0x25, 0xbe, 0x4a, 0xf4, 0x97, 0xbe, 0xae, 0x21, 0x8d, 0xbe,
	0x0b, 0xed, 0x16, 0xbe, 0x73, 0x49, 0xf0, 0xbd, 0x1a, 0x03, 0xcc, 0xbd,
	0xa5, 0x08, 0xa9, 0xbe, 0x1d, 0xc4, 0xa5, 0xbe, 0x9c, 0x76, 0x85, 0xbe,
	0x32, 0x0e, 0xfe, 0xbe, 0x91, 0xab, 0x0c, 0xbd, 0xd6, 0xd1, 0xe8, 0x3d,
	0x76, 0x58, 0xa9, 0xbe, 0xf3, 0xcc, 0x84, 0xbe, 0x4c, 0x02, 0xa4, 0xbe,
	0xed, 0x8e, 0xa2, 0xbe, 0x02, 0x0f, 0xe2, 0xbe, 0xfd, 0x6b, 0x8c, 0xbe,
	0x21, 0xba, 0xc7, 0xbe, 0x3d, 0xb6, 0x06, 0xbf, 0xb2, 0x98, 0xfa, 0xbe,
	0x7a, 0x8a, 0xc4, 0xbe, 0xbe, 0x38, 0xe5, 0xbe, 0x45, 0x05, 0xc6, 0xbe,
	0xf7, 0xda, 0x0b, 0xbf, 0x7b, 0x88, 0xdd, 0xbe, 0x45, 0xef, 0xf8, 0xbe,
	0x3e, 0xfb, 0xd5, 0xbe, 0x21, 0x11, 0x67, 0xbe, 0xa0, 0x5c, 0x30, 0xbe,
	0x2a, 0x8e, 0x27, 0xbe, 0xbb, 0xbe, 0xf7, 0xbd, 0xde, 0xa5, 0xb6, 0xbe,
	0x3c, 0x93, 0x2d, 0xbe, 0x8e, 0x68, 0x9f, 0xbe, 0x66, 0xde, 0xc9, 0xbe,
	0x41, 0x60, 0xa8, 0xbe, 0xe5, 0x9f, 0x9c, 0xbe, 0x66, 0x04, 0xd3, 0xbe,
	0xed, 0x82, 0xc0, 0xbe, 0x42, 0xf0, 0x92, 0xbe, 0xf2, 0xbf, 0x9b, 0xbe,
	0xb2, 0x96, 0xcb, 0xbe, 0xbf, 0x27, 0x98, 0xbe, 0x94, 0x80, 0x8d, 0xbe,
	0x15, 0xf4, 0x8e, 0xbe, 0xdd, 0xb1, 0xa7, 0xbe, 0xc3, 0xe0, 0x20, 0xbe,
	0x79, 0x81, 0x12, 0xbd, 0x41, 0x61, 0xb1, 0xbd, 0x63, 0x48, 0x2e, 0xbe,
	0x94, 0x2a, 0x74, 0xbe, 0x4f, 0xdc, 0x6a, 0xbd, 0x0d, 0x56, 0xdb, 0xbd,
	0xb5, 0xa3, 0xdf, 0x3c, 0xf1, 0x93, 0x89, 0xbd, 0x10, 0xcb, 0x14, 0xbe,
	0xaa, 0xc0, 0x6c, 0xbe, 0x05, 0xe3, 0x81, 0xbe, 0xf0, 0x5a, 0xa4, 0xbe,
	0xdd, 0x4b, 0x89, 0xbe, 0xb0, 0xfa, 0x8b, 0xbe, 0xe0, 0x70, 0x84, 0xbe,
	0xe0, 0xc2, 0x47, 0xbe, 0x91, 0xf1, 0xba, 0xbd, 0x5a, 0x1b, 0xc9, 0xbc,
	0x93, 0x06, 0x85, 0xbe, 0xfe, 0xcd, 0x96, 0xba, 0x2b, 0xa5, 0xd4, 0x3d,
	0xf5, 0x1d, 0xf1, 0x3c, 0xed, 0xee, 0x08, 0xbe, 0x6a, 0xac, 0x04, 0xbe,
	0xd9, 0x52, 0x7d, 0xbd, 0x8c, 0x1e, 0xaf, 0x3d, 0x2b, 0x7f, 0xc3, 0x3d,
	0x3c, 0x0d, 0x14, 0x3d, 0x9f, 0xec, 0xb5, 0xbd, 0x2c, 0x3e, 0x2e, 0xbd,
	0xd9, 0x95, 0x3e, 0x3b, 0x85, 0xae, 0x11, 0xbc, 0x5f, 0x39, 0x67, 0xbe,
	0x3c, 0xe9, 0xd2, 0xbe, 0x1e, 0x62, 0x1d, 0xbe, 0xa0, 0x05, 0xde, 0xba,
	0x5f, 0xea, 0x78, 0xbd, 0x07, 0x10, 0xa3, 0xbd, 0xa2, 0x69, 0xc5, 0x3d,
	0x4a, 0xc5, 0x0b, 0x3e, 0xa0, 0x11, 0xa6, 0x3d, 0xe0, 0xb8, 0x3a, 0x3d,
	0x1a, 0x16, 0x3f, 0xbe, 0x09, 0xc3, 0x14, 0x3c, 0xa3, 0x83, 0x57, 0x3e,
	0x17, 0x6a, 0xf3, 0x3d, 0x21, 0xbb, 0x69, 0x3e, 0x37, 0x24, 0x34, 0x3e,
	0x48, 0x1f, 0x21, 0x3e, 0x53, 0x8a, 0xe2, 0x3c, 0xa2, 0x8e, 0x5b, 0xbc,
	0xbe, 0x95, 0x11, 0xbe, 0x3a, 0x0e, 0x1d, 0xbe, 0x9c, 0x27, 0x71, 0xbd,
	0x54, 0x6b, 0x8f, 0x3d, 0xe5, 0x6b, 0x8b, 0x3c, 0x2c, 0xf0, 0x77, 0x3e,
	0xf6, 0xe6, 0xd0, 0x3b, 0x71, 0x28, 0x1e, 0x3d, 0xb5, 0x2f, 0x2f, 0x3d,
	0x13, 0xe0, 0x50, 0x3d, 0xd7, 0xd2, 0xb0, 0x3c, 0xc5, 0x56, 0x1d, 0xbe,
	0x44, 0x4b, 0xa1, 0xbd, 0x19, 0x5b, 0xc5, 0x3d, 0x13, 0xe9, 0x9b, 0x3e,
	0x42, 0xbf, 0xbb, 0x3e, 0xaa, 0x57, 0x9d, 0x3e, 0x79, 0x42, 0xbc, 0x3e,
	0xda, 0x32, 0x99, 0x3e, 0x37, 0xb8, 0x91, 0x3e, 0x57, 0x02, 0x88, 0x3e,
	0x26, 0xfe, 0x2f, 0x3e, 0xc1, 0x6e, 0xcb, 0x3d, 0x26, 0x0f, 0x33, 0x3e,
	0xe5, 0x9a, 0x8c, 0x3e, 0xca, 0x07, 0x13, 0x3e, 0x34, 0x37, 0x44, 0x3e,
	0x6b, 0x46, 0x29, 0x3e, 0xd6, 0xa6, 0xfb, 0x3d, 0x1c, 0x12, 0x37, 0x3e,
	0x27, 0x6f, 0x63, 0x3d, 0x81, 0xf5, 0x8f, 0x3c, 0xd7, 0x63, 0xd2, 0x3d,
	0x08, 0x8a, 0xa1, 0x3e, 0x93, 0xef, 0xaa, 0x3e, 0x90, 0x89, 0xcc, 0x3e,
	0xb6, 0x07, 0xed, 0x3e, 0x77, 0x6f, 0xe7, 0x3e, 0x19, 0x5a, 0x11, 0x3f,
	0x69, 0xcb, 0xc8, 0x3e, 0xad, 0xf8, 0xcf, 0x3e, 0x8c, 0x64, 0xbe, 0x3e,
	0xb0, 0xa9, 0x9a, 0x3e, 0x7e, 0xdc, 0x0d, 0x3e, 0xcd, 0x09, 0x04, 0x3e,
	0x45, 0x18, 0x4f, 0x3e, 0x9c, 0x03, 0x60, 0x3e, 0x13, 0x8c, 0x08, 0x3e,
	0x04, 0xe1, 0x25, 0x3e, 0x25, 0xe3, 0x42, 0x3e, 0x7a, 0x94, 0x0b, 0xbd,
	0x50, 0xed, 0x61, 0x3d, 0x4c, 0xd0, 0x9f, 0x3e, 0xcf, 0xfe, 0x82, 0x3e,
	0xa2, 0x5e, 0x9d, 0x3e, 0x8c, 0xd3, 0xb1, 0x3e, 0xe2, 0x34, 0xb3, 0x3e,
	0x8a, 0xfd, 0xc6, 0x3e, 0x46, 0xc9, 0xbb, 0x3e, 0x3f, 0x92, 0xd2, 0x3e,
	0x86, 0x53, 0xa9, 0x3e, 0xd3, 0x1c, 0x58, 0x3e, 0xbd, 0x4f, 0x24, 0x3e,
	0xbd, 0x71, 0x8d, 0x3e, 0xac, 0xda, 0x86, 0x3e, 0x44, 0xdc, 0xc8, 0x3d,
	0xf3, 0xd2, 0x27, 0x3d, 0x01, 0x81, 0x3b, 0x3e, 0x46, 0x6e, 0x45, 0x3e,
	0x1f, 0x23, 0x29, 0x3e, 0x03, 0xfd, 0xd8, 0x3d, 0x2d, 0x02, 0xc3, 0x3d,
	0xaa, 0xb3, 0xec, 0x3d, 0xa4, 0x2b, 0x54, 0x3e, 0xe6, 0xe3, 0xb8, 0x3e,
	0xc2, 0xb7, 0x46, 0x3e, 0x07, 0x2b, 0x37, 0x3e, 0x88, 0x90, 0xd3, 0x3e,
	0x9a, 0x3c, 0xdd, 0x3e, 0xa6, 0x4b, 0x8b, 0x3e, 0x85, 0xf1, 0x52, 0x3e,
	0x92, 0xf2, 0x15, 0x3e, 0xb7, 0x5e, 0x42, 0x3e, 0xe9, 0x7d, 0x82, 0x3e,
	0x04, 0x6e, 0x58, 0x3e, 0xde, 0xdc, 0x1c, 0x3e, 0x44, 0x0b, 0x8c, 0x3e,
	0xab, 0x4e, 0x89, 0x3e, 0x6b, 0x51, 0xcd, 0x3b, 0xe7, 0x86, 0x1d, 0x3e,
	0xb1, 0xf8, 0xd9, 0x3b, 0x1d, 0x78, 0x3b, 0x3e, 0x3b, 0x4f, 0x7f, 0x3d,
	0xda, 0x09, 0x0b, 0x3e, 0x76, 0x0b, 0xfd, 0x3d, 0xec, 0x78, 0x76, 0x3e,
	0x4b, 0x57, 0x72, 0x3e, 0xef, 0xb1, 0x7e, 0x3e, 0x82, 0x21, 0x9b, 0x3d,
	0x5e, 0xfa, 0x12, 0x3d, 0x05, 0xb3, 0x2a, 0x3e, 0x34, 0xd8, 0x47, 0x3c,
	0xaa, 0xdc, 0x42, 0x3e, 0x3b, 0xa3, 0xcd, 0x3d, 0x15, 0x83, 0x95, 0x3e,
	0xe1, 0x36, 0x2b, 0x3e, 0x56, 0xe7, 0x77, 0x3e, 0xba, 0xe5, 0x9b, 0x3d,
	0xa8, 0x6f, 0x41, 0x3d, 0x6c, 0x1e, 0x21, 0x3e, 0x98, 0xfd, 0x57, 0x3d,
	0x92, 0xf9, 0xd4, 0xbc, 0xf3, 0x98, 0x8e, 0xbc, 0xbb, 0xd1, 0x74, 0xbd,
	0xfa, 0x0a, 0x39, 0xbd, 0xa0, 0xff, 0x30, 0x3e, 0x3f, 0x94, 0x71, 0x3d,
	0x8d, 0x56, 0xe3, 0x3d, 0x9b, 0xf2, 0x5d, 0x3d, 0xe7, 0x6e, 0x12, 0x3e,
	0xff, 0xcb, 0xaf, 0x3d, 0x57, 0x54, 0x60, 0x3e, 0xe5, 0x5c, 0x12, 0x3e,
	0xae, 0x66, 0x29, 0x3e, 0x1c, 0x4f, 0xa6, 0x3d, 0x07, 0x14, 0x6e, 0x3e,
	0xc8, 0x1e, 0x12, 0x3e, 0x47, 0x78, 0x34, 0x3e, 0x66, 0x23, 0x84, 0x3d,
	0x13, 0xda, 0x7e, 0x3e, 0xf6, 0x42, 0x29, 0xbd, 0x9c, 0xed, 0x3f, 0xbd,
	0x25, 0xaa, 0x3d, 0xbd, 0xe3, 0xc9, 0x28, 0xbd, 0xf5, 0xb5, 0x9b, 0x3d,
	0x1d, 0xf4, 0x0f, 0x3e, 0x57, 0x8c, 0x34, 0x3d, 0x4a, 0x31, 0xbb, 0x3d,
	0x0e, 0x06, 0x3f, 0x3d, 0xc1, 0x58, 0xbe, 0x3d, 0x64, 0x08, 0xda, 0x3d,
	0x43, 0x97, 0x65, 0x3e, 0xc9, 0xcf, 0x59, 0x3e, 0xaf, 0xb9, 0xd4, 0x3d,
	0x2a, 0x45, 0x2f, 0x3e, 0xbe, 0xd2, 0x6a, 0x3e, 0xe0, 0xdb, 0xfd, 0x3d,
	0x81, 0xbd, 0x0e, 0x3e, 0x55, 0xc0, 0xf7, 0x3d, 0x27, 0x1c, 0xf6, 0x3d,
	0xad, 0x9d, 0xf6, 0x3d, 0xcc, 0x79, 0x0e, 0xbd, 0xbb, 0x7a, 0x44, 0xbe,
	0x1b, 0xc5, 0xcc, 0xbd, 0x51, 0x4a, 0x2c, 0x3c, 0x72, 0xd8, 0x5c, 0x3d,
	0x95, 0x23, 0x6e, 0x3c, 0x12, 0x6e, 0xc2, 0xbd, 0x0d, 0xa6, 0xea, 0x3d,
	0x52, 0x04, 0xee, 0x3d, 0xac, 0xa1, 0x1a, 0x3e, 0x47, 0xa5, 0xbe, 0x3d,
	0xee, 0x9c, 0xaa, 0x3d, 0x7a, 0x4c, 0x93, 0x3d, 0x11, 0x4d, 0x0e, 0x3e,
	0x0d, 0xcd, 0xd9, 0x3d, 0xd0, 0xc6, 0x74, 0x3d, 0x5d, 0xaf, 0x8c, 0x3d,
	0x72, 0x08, 0x89, 0xbb, 0x89, 0x4e, 0x60, 0xbd, 0x4e, 0xb7, 0xb6, 0x3c,
	0x4f, 0x13, 0x9c, 0xbd, 0xd6, 0x58, 0xed, 0x3d, 0xc1, 0x5d, 0x2f, 0x3e,
	0x83, 0x21, 0x25, 0x3e, 0x1c, 0x0c, 0x92, 0xbd, 0x28, 0xa5, 0x97, 0x3b,
	0x99, 0x2e, 0x1c, 0xbc, 0x03, 0x95, 0x31, 0x3d, 0x0a, 0x2e, 0xf1, 0x3c,
	0x4f, 0x98, 0x6f, 0x3e, 0xde, 0x03, 0x20, 0x3e, 0xc7, 0xeb, 0x8c, 0x3d,
	0xac, 0xbb, 0x31, 0x3e, 0x06, 0x76, 0x14, 0x3e, 0xae, 0xe1, 0xbc, 0x3d,
	0x36, 0x8b, 0xb4, 0x3d, 0x85, 0x69, 0x98, 0x3d, 0x77, 0xe3, 0x86, 0xbc,
	0xb8, 0x85, 0x0a, 0x3e, 0x07, 0x81, 0xa6, 0xbc, 0xa8, 0xde, 0xaa, 0x3d,
	0xfc, 0xa8, 0xab, 0xbd, 0x52, 0xd9, 0xc2, 0xbd, 0x52, 0xcc, 0x99, 0xbd,
	0x32, 0x21, 0x8f, 0xbd, 0x62, 0x9a, 0xae, 0x3a, 0xe1, 0x3f, 0xb6, 0x3d,
	0xb7, 0xff, 0xa3, 0xbc, 0xc4, 0x3f, 0x6b, 0x3d, 0xa8, 0xee, 0x56, 0xbd,
	0xfc, 0xff, 0x60, 0x3d, 0xd6, 0x21, 0x55, 0x3e, 0x97, 0x73, 0x01, 0x3e,
	0xba, 0x54, 0x5c, 0x3d, 0xd1, 0x0a, 0x32, 0x3b, 0xa3, 0x02, 0xc7, 0x3d,
	0x9a, 0xfc, 0x9a, 0x3d, 0x50, 0x7c, 0xe4, 0xbc, 0x77, 0x4e, 0x45, 0xbd,
	0x3f, 0x34, 0x48, 0xbe, 0x67, 0x4b, 0x1a, 0xbe, 0x0e, 0xd7, 0x5c, 0xbe,
	0x07, 0x71, 0x89, 0xbe, 0x77, 0x50, 0x39, 0xbe, 0x0f, 0x40, 0xe0, 0xbd,
	0x33, 0x12, 0x99, 0x3d, 0x7b, 0x24, 0x56, 0xbe, 0x36, 0xae, 0x62, 0xbd,
	0x30, 0x43, 0xd3, 0xbd, 0x85, 0xcb, 0x76, 0xbe, 0x98, 0xac, 0xec, 0xbd,
	0x36, 0x48, 0x51, 0xbe, 0x1c, 0x0d, 0x12, 0xbe, 0x73, 0x3e, 0xa2, 0xbd,
	0xee, 0x63, 0x6f, 0xbd, 0xf0, 0x8f, 0x1b, 0xbe, 0x46, 0x59, 0x9e, 0xbd,
	0x97, 0x75, 0x6c, 0xbe, 0xbd, 0xed, 0x0e, 0xbd, 0xef, 0xe8, 0x89, 0xbe,
	0x12, 0x04, 0xba, 0xbe, 0x42, 0xe1, 0xca, 0xbe, 0x80, 0x9d, 0xce, 0xbe,
	0xe5, 0xd9, 0x96, 0xbe, 0xb7, 0x14, 0xbb, 0xbe, 0x88, 0x8f, 0x4e, 0xbe,
	0x92, 0x58, 0x9c, 0xbe, 0x63, 0x57, 0xa3, 0xbe, 0x93, 0xfb, 0x01, 0xbf,
	0x3e, 0xff, 0xd8, 0xbe, 0x96, 0xd9, 0xa7, 0xbe, 0xba, 0x78, 0xc8, 0xbe,
	0xc2, 0x3c, 0x97, 0xbe, 0x6c, 0xd2, 0xbb, 0xbe, 0xba, 0xfc, 0x89, 0xbe,
	0x07, 0xd0, 0x79, 0xbe, 0x10, 0x2e, 0x93, 0xbe, 0xca, 0xbd, 0x4f, 0xbe,
	0x2a, 0x85, 0xaa, 0xbe, 0x2d, 0x86, 0x7e, 0xbe, 0x6d, 0x6c, 0xc1, 0xbe,
	0xe5, 0x3e, 0x84, 0xbe, 0x46, 0xb6, 0xef, 0xbe, 0x80, 0x11, 0xbf, 0xbe,
	0xb2, 0x54, 0xed, 0xbe, 0x23, 0x39, 0x94, 0xbe, 0x0b, 0x5c, 0x03, 0xbf,
	0x07, 0x7d, 0x12, 0xbf, 0xdc, 0x2e, 0x1f, 0xbf, 0x2b, 0x15, 0xe5, 0xbe,
	0x11, 0x9c, 0x16, 0xbf, 0x7b, 0x14, 0xbd, 0xbe, 0x85, 0x97, 0xcb, 0xbe,
	0xf6, 0x18, 0xcd, 0xbe, 0xb2, 0x38, 0x84, 0xbe, 0x7e, 0xc6, 0xf1, 0xbe,
	0x18, 0x93, 0xc5, 0xbe, 0xaa, 0x07, 0x93, 0xbe, 0x01, 0x63, 0xbf, 0xbd,
	0xab, 0xc5, 0x42, 0xbe, 0x24, 0x9c, 0xe6, 0xbd, 0xc2, 0x00, 0x82, 0xbe,
	0x35, 0x38, 0x81, 0xbe, 0xca, 0x70, 0xb9, 0xbe, 0xe1, 0x4b, 0xc3, 0xbe,
	0x0b, 0x2c, 0xb7, 0xbe, 0xb5, 0x36, 0x8c, 0xbe, 0x43, 0x8e, 0xaa, 0xbe,
	0xec, 0x32, 0xaf, 0xbe, 0x90, 0xe5, 0x54, 0xbe, 0x74, 0x56, 0x7c, 0xbe,
	0x58, 0xd7, 0x5a, 0xbe, 0x4f, 0x46, 0xb3, 0xbe, 0x15, 0x19, 0x55, 0xbe,
	0xea, 0x4b, 0xf3, 0xbd, 0x29, 0x54, 0x90, 0x3d, 0xa4, 0x7b, 0x46, 0xbd,
	0xfd, 0xea, 0x2b, 0x3d, 0x8b, 0x81, 0x0d, 0x3d, 0xa0, 0xec, 0xb8, 0x3d,
	0xc8, 0xbe, 0x45, 0xbd, 0x08, 0x1f, 0xb8, 0xbd, 0xdb, 0x0d, 0xb9, 0xbe,
	0xa1, 0xd6, 0x6b, 0xbd, 0x29, 0x64, 0x7a, 0xbd, 0x66, 0xd0, 0xc2, 0xbc,
	0xd3, 0xe6, 0x32, 0xbe, 0xbf, 0x5b, 0xd5, 0xbb, 0x7d, 0xda, 0x4f, 0xbe,
	0xe3, 0x7c, 0x28, 0xbe, 0x8f, 0x41, 0x17, 0xbe, 0xbf, 0x31, 0x81, 0xbc,
	0x2c, 0xfd, 0x04, 0x3e, 0x64, 0xec, 0xa7, 0x3d, 0x23, 0x58, 0x07, 0x3c,
	0x0e, 0xf6, 0x98, 0x3d, 0x67, 0x39, 0xd5, 0x3b, 0x4b, 0xfe, 0xc1, 0x3c,
	0x27, 0xa6, 0xa1, 0xbd, 0xc8, 0x7c, 0x29, 0x3e, 0x44, 0xab, 0x13, 0x3f,
	0xf3, 0x8d, 0x59, 0x3f, 0xaa, 0x4f, 0x7c, 0xbe, 0xa2, 0xe4, 0x82, 0xbd,
	0x5a, 0xef, 0x1a, 0xbe, 0x19, 0x8d, 0xa2, 0x3d, 0x1f, 0x7d, 0x3c, 0xbc,
	0xf4, 0xd6, 0x3a, 0xbc, 0x92, 0x52, 0x0b, 0xbd, 0x0a, 0xf7, 0x09, 0x3d,
	0x24, 0xc2, 0x94, 0x3d, 0x9d, 0x8e, 0x9f, 0x3d, 0x71, 0x8b, 0xab, 0x3d,
	0xad, 0x32, 0x60, 0x3d, 0xaf, 0x0b, 0x9b, 0x3c, 0x43, 0x50, 0xea, 0x3d,
	0x0f, 0x52, 0x18, 0x3e, 0x73, 0xbf, 0x5f, 0x3e, 0x89, 0x40, 0x9c, 0x3e,
	0xec, 0x97, 0xa8, 0x3e, 0xa8, 0xe0, 0xb4, 0x3e, 0x32, 0x2e, 0xb4, 0x3e,
	0x01, 0x9c, 0x1a, 0xbe, 0x3c, 0x8f, 0xa0, 0x3d, 0x47, 0x00, 0x94, 0x3d,
	0x00, 0xdf, 0x2e, 0xbd, 0xfd, 0x38, 0x68, 0xbd, 0x2e, 0x77, 0x11, 0xbd,
	0xd7, 0x4a, 0x85, 0x3d, 0x07, 0x38, 0xcd, 0x3d, 0xbf, 0x5d, 0x0c, 0x3e,
	0x51, 0xdd, 0xb1, 0xbb, 0x4d, 0x8d, 0x75, 0x3e, 0xe2, 0x42, 0x54, 0x3e,
	0xeb, 0x57, 0xee, 0x3d, 0x04, 0x36, 0x08, 0x3e, 0xcd, 0xf2, 0xa6, 0x3e,
	0x6f, 0xb6, 0x80, 0x3e, 0x12, 0xbe, 0xac, 0x3e, 0xb7, 0x7b, 0x8d, 0x3e,
	0x51, 0x1d, 0x92, 0x3e, 0x3b, 0xe4, 0x8e, 0x3e, 0xbb, 0xe9, 0x02, 0xbe,
	0x8d, 0xde, 0x29, 0x3d, 0xbf, 0x86, 0x65, 0x3e, 0xdd, 0x5c, 0x3d, 0x3d,
	0x33, 0x2a, 0x3c, 0xbd, 0x79, 0x0f, 0xa5, 0x3c, 0xb4, 0x53, 0x1f, 0x3c,
	0xbc, 0x81, 0xc7, 0xbd, 0xab, 0x52, 0x9a, 0xbd, 0x38, 0xa9, 0x87, 0xbd,
	0xe6, 0x15, 0xb8, 0x3d, 0x30, 0x0e, 0x4f, 0xbd, 0x5d, 0x3a, 0x0f, 0x3e,
	0x8b, 0x5d, 0x5b, 0x3e, 0xcb, 0x74, 0x79, 0x3e, 0x99, 0x8d, 0x58, 0x3e,
	0x9c, 0xd8, 0xe1, 0x3d, 0x6d, 0xb0, 0x9e, 0xbd, 0xe5, 0x64, 0xb0, 0xbd,
	0x6f, 0xf6, 0xa6, 0x3e, 0x0e, 0x2b, 0x74, 0xbe, 0x07, 0x5d, 0x0f, 0x3d,
	0xb7, 0xc9, 0xf0, 0x3c, 0x6a, 0x09, 0x9c, 0x3d, 0xca, 0xe1, 0x32, 0xbd,
	0xb2, 0x7b, 0xfd, 0x3d, 0xae, 0x98, 0xa1, 0x3d, 0xce, 0x37, 0x40, 0xbe,
	0x15, 0xa1, 0x62, 0x3d, 0x8b, 0xad, 0xeb, 0xbc, 0x81, 0x66, 0x23, 0xbe,
	0xab, 0xa8, 0x8f, 0xbd, 0x85, 0x00, 0x06, 0xbe, 0x0d, 0xc0, 0xa7, 0xbc,
	0x3f, 0xf8, 0x71, 0xbd, 0x8e, 0x10, 0x11, 0xbe, 0x9e, 0x04, 0x71, 0xbd,
	0xe9, 0xc6, 0x45, 0xbd, 0x92, 0xfd, 0x97, 0xbd, 0x00, 0xa1, 0x8d, 0x3e,
	0xe9, 0x8a, 0x2e, 0xbe, 0x4f, 0x33, 0x12, 0x3e, 0x9e, 0x0a, 0xcd, 0x3d,
	0xd3, 0xb6, 0xbe, 0x3d, 0x47, 0xf2, 0x36, 0x3e, 0x88, 0x32, 0xc6, 0x3d,
	0x8b, 0xda, 0x44, 0x3e, 0x21, 0x2c, 0xce, 0x3d, 0x46, 0x62, 0xe1, 0x3d,
	0x13, 0x8a, 0xa1, 0xbd, 0x36, 0x4e, 0x80, 0xbd, 0xda, 0x10, 0x4e, 0xbe,
	0x49, 0xea, 0x0a, 0xbf, 0x8d, 0x8a, 0xc0, 0xbe, 0xa0, 0x07, 0xc6, 0xbe,
	0xc7, 0x18, 0x10, 0xbf, 0xde, 0x30, 0xb8, 0xbe, 0x8f, 0xbd, 0xe3, 0xbe,
	0x01, 0x8e, 0x1c, 0xbf, 0x19, 0xd8, 0x96, 0xbe, 0x74, 0x5e, 0x43, 0xbd,
	0x5a, 0xd0, 0x6c, 0xbc, 0xc7, 0x82, 0x09, 0x3e, 0xe5, 0x0b, 0x3b, 0x3e,
	0x0b, 0xab, 0x81, 0x3d, 0xc1, 0x8a, 0xb5, 0x3c, 0x27, 0x07, 0x7e, 0x3e,
	0xd7, 0xe6, 0x9e, 0x3c, 0xc4, 0x7d, 0x3d, 0x3e, 0xf3, 0x99, 0x92, 0x3c,
	0x94, 0x49, 0x98, 0xbd, 0x87, 0x22, 0x7e, 0xbe, 0xa8, 0x39, 0x85, 0xbe,
	0x6a, 0x27, 0x90, 0xbe, 0x6c, 0x24, 0xbb, 0xbe, 0x54, 0x79, 0xf1, 0xbe,
	0x6e, 0xe0, 0x0c, 0xbf, 0xee, 0x90, 0x51, 0xbf, 0x8a, 0x2e, 0x4f, 0xbf,
	0xd3, 0xf0, 0x62, 0xbf, 0xb0, 0x81, 0x26, 0xbe, 0xc7, 0x02, 0xd7, 0x3d,
	0x2a, 0x06, 0x03, 0x3e, 0xda, 0xc3, 0x34, 0x3c, 0xa6, 0x40, 0xe9, 0x3c,
	0x99, 0xc1, 0xe3, 0x3d, 0xf6, 0x84, 0x00, 0x3e, 0x29, 0xb7, 0x19, 0xbd,
	0xea, 0x7a, 0xc4, 0x3d, 0x0e, 0x2d, 0x2e, 0xbd, 0x16, 0xf6, 0x1b, 0xbe,
	0x9f, 0x19, 0x4c, 0xbe, 0xdc, 0x39, 0xce, 0xbd, 0xb8, 0x8a, 0xb8, 0xbd,
	0x3f, 0xdc, 0xcf, 0xbd, 0x0c, 0x54, 0x5d, 0xbe, 0xc6, 0xf9, 0x63, 0xbe,
	0x66, 0xf0, 0xc9, 0xbe, 0x09, 0xae, 0x1d, 0xbf, 0x35, 0xd5, 0x45, 0xbf,
	0xf1, 0x96, 0xcd, 0xbd, 0x4e, 0x55, 0x41, 0x3c, 0x5a, 0x36, 0x6c, 0x3d,
	0xae, 0x30, 0x20, 0xbb, 0x9a, 0x5b, 0x13, 0x3e, 0xe2, 0x3d, 0x78, 0x3c,
	0x0c, 0x1f, 0x96, 0x3d, 0x0a, 0xe8, 0x51, 0x3d, 0x36, 0xad, 0xde, 0xbc,
	0x9b, 0xbe, 0x86, 0xbd, 0x6d, 0x9f, 0x3d, 0xbd, 0xea, 0x12, 0xd5, 0xbd,
	0xb6, 0x4f, 0xaf, 0xbe, 0xfc, 0xc1, 0x3b, 0xbe, 0x51, 0xff, 0x7e, 0xbe,
	0x32, 0x56, 0xe1, 0xbd, 0x35, 0xd6, 0x8a, 0x3d, 0x26, 0x93, 0x12, 0xbe,
	0xed, 0xc4, 0x83, 0xbe, 0x9d, 0x59, 0x94, 0xbe, 0xc4, 0xe0, 0xa1, 0x3d,
	0x7f, 0xeb, 0xd7, 0xba, 0x39, 0x01, 0x9b, 0x3d, 0x01, 0x50, 0xa5, 0x3b,
	0xf5, 0x2b, 0x0b, 0x3e, 0x9f, 0x7b, 0xde, 0x3d, 0x25, 0x84, 0x3f, 0x3b,
	0x77, 0x33, 0x8c, 0x3d, 0x45, 0xde, 0x5e, 0xbc, 0xf0, 0xb9, 0x27, 0xbd,
	0x52, 0xb0, 0x46, 0xbd, 0x6e, 0x8b, 0x84, 0xbe, 0x8a, 0x94, 0x69, 0xbe,
	0x3d, 0x8a, 0xe4, 0xbd, 0xb9, 0x53, 0xda, 0xbd, 0x31, 0xb8, 0x12, 0xbe,
	0x18, 0xec, 0x8f, 0xbb, 0x9e, 0x77, 0xa9, 0xbc, 0xc1, 0xc7, 0x15, 0xbe,
	0x42, 0x5c, 0x1f, 0xbd, 0x6a, 0x03, 0x0a, 0x3e, 0x0c, 0xc6, 0xe7, 0xbc,
	0x0c, 0x97, 0x39, 0x3c, 0xa6, 0x8e, 0x8b, 0x3c, 0x12, 0xff, 0xab, 0xbc,
	0xa7, 0x02, 0x06, 0xbd, 0x58, 0x4f, 0x8d, 0xbc, 0xea, 0xc4, 0x90, 0xbd,
	0xfc, 0x69, 0x1b, 0xbe, 0x23, 0xac, 0x06, 0xbe, 0xd8, 0x15, 0x6c, 0xbd,
	0x5c, 0x3d, 0x4e, 0xbe, 0xe7, 0xcb, 0xc1, 0xbd, 0x8a, 0x36, 0xe0, 0xbd,
	0x35, 0x39, 0xfa, 0xbd, 0xf0, 0xfb, 0x8c, 0xbd, 0x8c, 0x7e, 0x20, 0xbe,
	0x9e, 0xfe, 0x09, 0xbd, 0x0f, 0xe0, 0xc6, 0x3d, 0x57, 0x2e, 0xaa, 0x3c,
	0x86, 0xbd, 0x1c, 0xbe, 0x2e, 0x2f, 0x0b, 0xbe, 0xcc, 0xbc, 0xbd, 0xbd,
	0x34, 0xab, 0x47, 0xbe, 0xcf, 0xc7, 0x1f, 0x3e, 0x08, 0x0f, 0x5e, 0x3d,
	0x58, 0x2d, 0x80, 0x3c, 0xc9, 0xd7, 0x84, 0xbd, 0x4b, 0x48, 0x67, 0xbd,
	0x6f, 0xf8, 0x46, 0xbe, 0x45, 0xa6, 0x8d, 0xbd, 0xb5, 0x52, 0x19, 0x3c,
	0xfd, 0x15, 0x42, 0xbe, 0x59, 0x4b, 0x20, 0xbe, 0xff, 0x12, 0x5d, 0x3d,
	0x33, 0xff, 0x36, 0xbd, 0x3b, 0x79, 0x53, 0x3d, 0xe5, 0xcb, 0x9d, 0x3d,
	0x49, 0x16, 0x03, 0x3e, 0xc7, 0xb0, 0x05, 0x3e, 0x37, 0xd3, 0xe0, 0xbe,
	0x55, 0xee, 0x8c, 0xbe, 0x28, 0x64, 0xaf, 0xbe, 0x06, 0xf1, 0xaa, 0xbe,
	0xdf, 0x13, 0x36, 0xbe, 0x39, 0x74, 0x18, 0xbe, 0x69, 0x98, 0x01, 0xbd,
	0xd4, 0xdf, 0xa7, 0xbd, 0x91, 0x49, 0x0b, 0xbe, 0xe2, 0xac, 0x85, 0xbd,
	0xf5, 0x3b, 0xc3, 0xbd, 0xd2, 0x45, 0xe9, 0xbd, 0xa8, 0x7f, 0x16, 0xbe,
	0x6e, 0x07, 0x88, 0x3d, 0x5e, 0x85, 0xa6, 0xbd, 0x2f, 0x5d, 0x33, 0xbc,
	0xbb, 0x2c, 0x2f, 0x3e, 0x4c, 0x4a, 0xc3, 0x3d, 0xa2, 0x5e, 0x97, 0x3e,
	0xe6, 0x2c, 0xa5, 0x3d, 0x76, 0x7d, 0xeb, 0xbe, 0x42, 0x5d, 0xc6, 0xbe,
	0xad, 0x82, 0xde, 0xbe, 0x11, 0x49, 0xdc, 0xbe, 0xf4, 0xbf, 0x8d, 0xbe,
	0x78, 0x0c, 0xa7, 0xbe, 0xb9, 0xf4, 0xba, 0xbe, 0xde, 0xd4, 0x8e, 0xbe,
	0x01, 0xd4, 0x5a, 0xbe, 0x10, 0x14, 0x48, 0xbe, 0xe9, 0x17, 0xbc, 0xbd,
	0x92, 0xf7, 0x53, 0xbd, 0x24, 0xdc, 0x81, 0x3d, 0x05, 0x0f, 0xe8, 0x3d,
	0x02, 0xe1, 0x9a, 0xbd, 0x46, 0x66, 0xcc, 0x3d, 0xe0, 0xfb, 0x1f, 0x3e,
	0x6a, 0xab, 0x4b, 0x3d, 0xd1, 0xda, 0x2a, 0x3e, 0xae, 0xf8, 0xb2, 0x3d,
	0x77, 0x6e, 0x14, 0xbe, 0x3e, 0x4b, 0x00, 0xbe, 0x71, 0x3d, 0xd0, 0xbe,
	0xc9, 0x76, 0xf4, 0xbe, 0x38, 0xcf, 0xbf, 0xbe, 0xdb, 0x78, 0xfa, 0xbe,
	0x95, 0xb8, 0x05, 0xbf, 0x63, 0xc8, 0x8e, 0xbe, 0x14, 0x98, 0x5f, 0xbe,
	0x38, 0x9f, 0x1b, 0xbe, 0x0c, 0xfa, 0x34, 0xbc, 0x38, 0x73, 0x0d, 0x3e,
	0x02, 0xc6, 0xf9, 0x3c, 0x9a, 0xb9, 0xcb, 0xbc, 0xda, 0x8f, 0x11, 0x3e,
	0xf8, 0x5e, 0xa3, 0xbd, 0x89, 0xb7, 0x43, 0x3d, 0x10, 0xb9, 0x40, 0x3e,
	0xe7, 0x32, 0x93, 0x3d, 0x75, 0x3f, 0x92, 0x3d, 0x08, 0x25, 0xa9, 0x3e,
	0x7d, 0x9e, 0x26, 0xbd, 0x23, 0x4e, 0x93, 0xbe, 0xd3, 0x8a, 0x37, 0xbe,
	0xb2, 0x30, 0x0b, 0xbe, 0x69, 0x96, 0x3e, 0xbe, 0xa7, 0x3d, 0x32, 0xbd,
	0x71, 0x4f, 0x36, 0xbe, 0x6c, 0x9b, 0x75, 0xbd, 0xd8, 0xe8, 0xb1, 0xbd,
	0x11, 0x94, 0x02, 0x3e, 0x6a, 0xe9, 0x00, 0x3d, 0xfc, 0xc5, 0xd6, 0xbc,
	0x59, 0x81, 0xa7, 0x3d, 0x36, 0xcd, 0x44, 0x3c, 0x2d, 0xab, 0x04, 0xbd,
	0x19, 0x24, 0x06, 0xbd, 0xb6, 0xcb, 0x0b, 0x3e, 0x97, 0xde, 0x63, 0x3e,
	0xab, 0x25, 0xf4, 0x3d, 0x13, 0xd8, 0x87, 0x3e, 0x54, 0x7e, 0x10, 0x3e,
	0x17, 0x13, 0xc3, 0xbd, 0x16, 0x8c, 0x58, 0x3d, 0x4e, 0x58, 0x17, 0x3e,
	0xbe, 0x96, 0x89, 0x3e, 0x79, 0x0f, 0xcd, 0x3e, 0x99, 0x7c, 0x53, 0x3e,
	0x73, 0xdd, 0x43, 0x3e, 0x02, 0x87, 0xe7, 0x3d, 0x06, 0x71, 0x80, 0x3d,
	0x84, 0xf4, 0x89, 0x3d, 0x29, 0xcc, 0x98, 0x3d, 0x55, 0x56, 0x0d, 0x3e,
	0x7f, 0xed, 0x07, 0xbd, 0x75, 0x4f, 0xd1, 0x3d, 0xb2, 0x71, 0xcf, 0xbd,
	0xe5, 0xcd, 0xdb, 0x3d, 0x5d, 0x13, 0x6e, 0x3c, 0x1a, 0xe9, 0xbf, 0x3c,
	0x5d, 0xa4, 0x2f, 0x3e, 0x8a, 0x9e, 0x8a, 0x3d, 0xef, 0x81, 0xfc, 0x3d,
	0x7b, 0xee, 0x45, 0x3e, 0xc1, 0xca, 0x4d, 0x3e, 0xaa, 0x82, 0x6b, 0x3e,
	0xef, 0xf6, 0x29, 0x3e, 0x80, 0x05, 0x37, 0x3e, 0xf9, 0x0a, 0x09, 0x3e,
	0x6a, 0xd9, 0xdb, 0x3d, 0xdc, 0x43, 0x18, 0x3e, 0xb3, 0xc8, 0x30, 0x3e,
	0x7c, 0xa3, 0x13, 0xbc, 0x8c, 0xe5, 0xed, 0x3c, 0x80, 0xc4, 0x47, 0x3c,
	0xa5, 0x83, 0x72, 0xbd, 0x4a, 0xfc, 0x05, 0xbe, 0xfb, 0x92, 0x3f, 0x3c,
	0x80, 0x5d, 0xa2, 0xbb, 0x46, 0x30, 0x1e, 0x3d, 0x3b, 0x88, 0xe9, 0xbd,
	0x50, 0x14, 0x3b, 0x3e, 0x2d, 0x95, 0xaa, 0x3d, 0x70, 0x48, 0x7b, 0x3e,
	0x1d, 0xf2, 0x35, 0x3e, 0xbf, 0xe8, 0x5e, 0x3e, 0xbd, 0xc0, 0x4e, 0x3d,
	0x53, 0x2e, 0xa8, 0x3d, 0x85, 0xd2, 0x6a, 0x3d, 0xd2, 0x06, 0x24, 0x3d,
	0xf1, 0x4a, 0x78, 0x3e, 0xb9, 0x3f, 0x9f, 0x3d, 0xc2, 0xbe, 0x2d, 0xbd,
	0xae, 0x18, 0x02, 0x3e, 0x5e, 0x47, 0xaa, 0xbd, 0x24, 0x3e, 0xa2, 0x3d,
	0x5b, 0xff, 0xf8, 0xbd, 0xa2, 0x4a, 0x72, 0xbc, 0x67, 0x13, 0xbf, 0xbd,
	0xf4, 0xa1, 0x4f, 0xbe, 0xe3, 0x51, 0xa9, 0x3c, 0xea, 0x44, 0x04, 0xbe,
	0x88, 0x52, 0xdc, 0x3d, 0x2c, 0xb5, 0x11, 0x3d, 0x28, 0x4c, 0x54, 0xbb,
	0x5e, 0x07, 0xd8, 0x3d, 0x1f, 0xc0, 0x6d, 0x3e, 0xcf, 0x9e, 0x3a, 0x3e,
	0xad, 0x8c, 0x45, 0x3e, 0x94, 0x84, 0x7f, 0x3d, 0xcb, 0xaf, 0x86, 0x3e,
	0x89, 0xc8, 0x79, 0x3e, 0xf8, 0x7e, 0xfd, 0x3d, 0x0c, 0x9a, 0x88, 0x3e,
	0xf6, 0xa3, 0x2a, 0x3e, 0x5b, 0x65, 0xba, 0x3d, 0xa3, 0x80, 0xd6, 0x3d,
	0xe9, 0x0f, 0xac, 0xbc, 0xe1, 0x49, 0x00, 0x3e, 0x71, 0xbf, 0x76, 0xbd,
	0xfa, 0xb9, 0x30, 0xbf, 0x00, 0x0a, 0x04, 0xbf, 0x17, 0x75, 0xdc, 0xbe,
	0x32, 0xc9, 0xf5, 0xbe, 0xd4, 0xc2, 0xcc, 0xbe, 0xa9, 0xf9, 0xb5, 0xbe,
	0xca, 0x70, 0xe7, 0xbe, 0x76, 0x50, 0xab, 0xbe, 0x2e, 0x68, 0x51, 0xbe,
	0xd9, 0x8e, 0x96, 0xbe, 0x53, 0xcf, 0x4d, 0xbe, 0xf4, 0xe9, 0x24, 0xbe,
	0xa9, 0x9c, 0x01, 0xbe, 0xfb, 0xaa, 0x0b, 0xbe, 0x36, 0x36, 0x42, 0xbe,
	0x49, 0x11, 0xa6, 0x3d, 0x22, 0x8d, 0x59, 0x3d, 0x16, 0x76, 0x73, 0x3d,
	0x31, 0xe3, 0x12, 0xbe, 0x44, 0x4d, 0x4f, 0xbe, 0x90, 0x76, 0x1f, 0xbf,
	0xd1, 0xd3, 0xd9, 0xbe, 0x2e, 0x61, 0xef, 0xbe, 0xa7, 0xd9, 0x0b, 0xbf,
	0x49, 0x90, 0xce, 0xbe, 0x9e, 0x41, 0x17, 0xbf, 0xe2, 0xb0, 0xa5, 0xbe,
	0xa0, 0x91, 0x8c, 0xbe, 0x8d, 0xa0, 0xdb, 0xbe, 0xf3, 0x0f, 0x61, 0xbe,
	0x6e, 0x4a, 0x9a, 0xbe, 0x60, 0x55, 0x2c, 0xbe, 0xfa, 0x26, 0x54, 0xbe,
	0x01, 0xb4, 0x6e, 0xbe, 0xeb, 0x60, 0x0e, 0xbe, 0x9a, 0x29, 0x6b, 0xbc,
	0x4b, 0xdb, 0xdf, 0xbd, 0xf6, 0x03, 0x77, 0xbb, 0x5c, 0xad, 0x63, 0xbe,
	0x71, 0x90, 0xb6, 0x3d, 0x92, 0x86, 0xbf, 0xbe, 0x03, 0xe5, 0xaf, 0xbe,
	0x48, 0x7a, 0xc7, 0xbe, 0x00, 0x1d, 0xac, 0xbe, 0xe2, 0x92, 0x69, 0xbe,
	0x0e, 0x8e, 0xe7, 0xbe, 0x02, 0x6c, 0xae, 0xbe, 0x99, 0xd4, 0x50, 0xbe,
	0xef, 0x09, 0x8f, 0xbe, 0x02, 0x1f, 0xb6, 0xbe, 0x99, 0xd9, 0x64, 0xbe,
	0xbd, 0xbb, 0xb5, 0xbe, 0x67, 0x3c, 0xe6, 0xbd, 0x85, 0x7e, 0x72, 0xbe,
	0xb6, 0x1d, 0x4d, 0xbe, 0xc7, 0x0b, 0x21, 0xbe, 0xba, 0xf2, 0xfb, 0x3c,
	0xbd, 0x74, 0x8f, 0xbe, 0x57, 0xce, 0x1d, 0xbe, 0xc5, 0xbe, 0xb3, 0xbe,
	0x27, 0x58, 0x8f, 0xbe, 0x0b, 0xc1, 0x76, 0xbe, 0x41, 0xfa, 0xd2, 0xbe,
	0xad, 0x33, 0x9b, 0xbe, 0x20, 0x15, 0xba, 0xbe, 0xa3, 0x64, 0x87, 0xbe,
	0xa8, 0xb4, 0xc2, 0xbe, 0xc3, 0x97, 0x1d, 0xbe, 0xee, 0x56, 0x91, 0xbe,
	0x78, 0xbc, 0x25, 0xbe, 0x9d, 0x6a, 0xa2, 0xbe, 0x8a, 0x3c, 0xaf, 0xbe,
	0x97, 0x3c, 0x41, 0xbe, 0xec, 0x1c, 0xbd, 0xbe, 0x6e, 0xe3, 0x51, 0xbe,
	0x09, 0x2c, 0x50, 0xbe, 0xe9, 0x10, 0x8a, 0xbe, 0x15, 0x5a, 0x87, 0xbe,
	0xf2, 0x42, 0xce, 0xbe, 0x37, 0x7a, 0xa4, 0xbe, 0xa5, 0x9e, 0x85, 0xbe,
	0x4d, 0x4f, 0x55, 0xbe, 0xa5, 0x58, 0x6f, 0xbe, 0x4c, 0xb9, 0x6d, 0xbe,
	0x61, 0x52, 0xf9, 0xbd, 0x5e, 0xc9, 0xc6, 0xbe, 0x5c, 0x39, 0x16, 0xbe,
	0x3d, 0x9b, 0x19, 0xbe, 0xbb, 0x84, 0xb5, 0xbe, 0xb5, 0x7c, 0x4d, 0xbe,
	0x3a, 0x97, 0xf3, 0xbe, 0x91, 0x11, 0x7a, 0xbe, 0x45, 0x2c, 0x54, 0xbe,
	0x3c, 0x97, 0x73, 0xbe, 0xf4, 0xd6, 0xbc, 0xbe, 0x7c, 0x45, 0xb4, 0xbe,
	0x9c, 0xaa, 0x0a, 0xbf, 0x25, 0xce, 0xdf, 0xbe, 0xd9, 0xd2, 0x0a, 0xbf,
	0x10, 0x2e, 0x2b, 0xbf, 0x38, 0xd0, 0x9c, 0xbe, 0x4c, 0xcf, 0x7c, 0xbd,
	0x9a, 0xd8, 0x35, 0xbe, 0x0c, 0xcd, 0x64, 0xbd, 0x31, 0xf3, 0x00, 0xbd,
	0x14, 0x70, 0x37, 0xbe, 0xc7, 0x3c, 0x56, 0xbe, 0xa7, 0x5c, 0x54, 0xbe,
	0xcc, 0xec, 0x72, 0xbe, 0x2c, 0x3e, 0x85, 0xbe, 0x69, 0x25, 0xb1, 0xbe,
	0xb1, 0x76, 0x33, 0xbe, 0x43, 0x37, 0xb4, 0xbe, 0x19, 0x71, 0xf6, 0xbe,
	0x3a, 0xa7, 0xdd, 0xbe, 0x97, 0x4d, 0xb8, 0xbe, 0xb7, 0xfb, 0xca, 0xbe,
	0x7d, 0x92, 0xd8, 0xbe, 0x1f, 0x00, 0x21, 0xbf, 0x2d, 0x01, 0x2a, 0xbf,
	0xee, 0xc0, 0xbc, 0xbe, 0x93, 0x92, 0x36, 0xbc, 0x97, 0xe0, 0x71, 0xbe,
	0x16, 0x4a, 0xc5, 0xbd, 0x41, 0x7c, 0x1a, 0xbe, 0x8c, 0x73, 0xb6, 0xbd,
	0xe4, 0xda, 0x1d, 0xbe, 0x5c, 0x09, 0x98, 0xbd, 0x30, 0xd1, 0x69, 0xbe,
	0xa4, 0x2a, 0x1b, 0xbe, 0x04, 0x2f, 0xa1, 0xbe, 0xb1, 0x3e, 0xc0, 0xbe,
	0x99, 0x49, 0x1d, 0xbe, 0x78, 0x1b, 0xe4, 0xbe, 0x86, 0x5b, 0xb5, 0xbe,
	0x79, 0x74, 0xc9, 0xbe, 0xcd, 0x34, 0xc4, 0xbe, 0x7d, 0xd6, 0xc3, 0xbe,
	0xea, 0x2b, 0xa6, 0xbe, 0xc7, 0xb4, 0xad, 0xbe, 0xba, 0x9d, 0x48, 0xbe,
	0xfe, 0x05, 0x78, 0xbc, 0xd2, 0x6d, 0x38, 0xbd, 0xb1, 0x5e, 0xd6, 0xbd,
	0x4b, 0x1d, 0x8a, 0xbc, 0x52, 0x2a, 0xc3, 0xbd, 0xbd, 0x95, 0x7f, 0x3c,
	0xee, 0xc3, 0x21, 0xbe, 0xa5, 0x1f, 0xe0, 0xbd, 0x55, 0x95, 0x3c, 0xbe,
	0xa9, 0x8d, 0x38, 0xbe, 0xd3, 0xe1, 0x08, 0xbe, 0x2f, 0x34, 0x52, 0xbe,
	0xbb, 0x0a, 0x92, 0xbe, 0x52, 0x13, 0x49, 0xbe, 0xe2, 0x08, 0xb2, 0xbe,
	0x0d, 0xe1, 0xa3, 0xbe, 0x83, 0x28, 0x9d, 0xbe, 0xb0, 0xc9, 0x59, 0xbe,
	0x72, 0x9c, 0x11, 0xbe, 0x78, 0x78, 0xa1, 0xbc, 0xed, 0x48, 0x89, 0x3e,
	0x89, 0x36, 0x09, 0xbe, 0x08, 0xfc, 0x8a, 0x3d, 0xe5, 0x29, 0x16, 0x3c,
	0xab, 0x83, 0x30, 0x3d, 0xfd, 0xd0, 0x02, 0x3e, 0xf2, 0xaa, 0xe3, 0x3c,
	0x66, 0x1d, 0x87, 0x3c, 0x3a, 0xc8, 0xdf, 0xbd, 0x5c, 0x9a, 0x80, 0xbe,
	0x02, 0x1c, 0xf3, 0xbd, 0x68, 0x0b, 0x40, 0xbe, 0xae, 0x32, 0x65, 0xbe,
	0xa9, 0xb6, 0x72, 0xbe, 0xa6, 0x62, 0xb2, 0xbe, 0xb5, 0x42, 0x9b, 0xbe,
	0xe2, 0x9c, 0x3b, 0xbe, 0x9b, 0xc6, 0x05, 0xbd, 0x91, 0xef, 0xe6, 0x3d,
	0xfd, 0xf0, 0x46, 0x3e, 0x05, 0x3b, 0x8b, 0x3e, 0x58, 0x7a, 0xa5, 0x3c,
	0x7e, 0xf6, 0xdb, 0x3d, 0x14, 0x78, 0xec, 0x3d, 0xb8, 0x88, 0x3d, 0x3c,
	0x7f, 0x25, 0x02, 0x3d, 0x10, 0x84, 0x95, 0x3d, 0x57, 0x5e, 0x8f, 0x3c,
	0xb6, 0xb6, 0x88, 0xbd, 0x48, 0xf8, 0x25, 0xbe, 0x52, 0x07, 0xb0, 0xbd,
	0x46, 0xf3, 0x59, 0x3d, 0x7d, 0xf7, 0x36, 0xbe, 0xae, 0x30, 0x8b, 0xbe,
	0xd1, 0x5a, 0x5c, 0xbe, 0x0b, 0x65, 0xd9, 0xbd, 0xa9, 0xa9, 0x32, 0xbd,
	0x01, 0x9b, 0x05, 0x3e, 0xb5, 0x15, 0x2a, 0x3e, 0x44, 0x4a, 0xb1, 0x3e,
	0x65, 0x1f, 0x86, 0x3e, 0x9e, 0x7a, 0xf7, 0x3c, 0x32, 0xb8, 0xbf, 0x3d,
	0xb3, 0x7c, 0x90, 0x3c, 0x15, 0xe8, 0xdd, 0x3d, 0xb6, 0xf0, 0xed, 0x3d,
	0xa4, 0xae, 0xf1, 0x3c, 0x1e, 0x35, 0xd8, 0x3d, 0xe1, 0xa1, 0x41, 0xbd,
	0x2b, 0x42, 0xad, 0x3d, 0x94, 0x5b, 0xab, 0xbc, 0x1a, 0xbc, 0x48, 0xbd,
	0xbc, 0x22, 0x12, 0xbe, 0xbb, 0x38, 0xc7, 0xbd, 0xd4, 0x74, 0x28, 0xbd,
	0xdd, 0x1c, 0x95, 0x3d, 0x77, 0xc8, 0x97, 0xbd, 0xa3, 0x28, 0x23, 0x3e,
	0x56, 0x8b, 0xbf, 0x3d, 0x87, 0xc8, 0x6c, 0x3e, 0xbc, 0x2f, 0xa4, 0x3e,
	0x2a, 0x04, 0x32, 0x3e, 0x84, 0xa4, 0x30, 0x3d, 0x29, 0xb1, 0xed, 0x3d,
	0x62, 0x22, 0xd1, 0x3d, 0x9b, 0x21, 0xdb, 0x3c, 0x51, 0x31, 0xf3, 0x3c,
	0x0e, 0x4e, 0x76, 0x3d, 0xaf, 0xc4, 0x9e, 0x3d, 0x9f, 0x86, 0xca, 0xbc,
	0x0a, 0xb8, 0x9b, 0x3d, 0x2e, 0x18, 0x81, 0xbd, 0x1a, 0x51, 0x77, 0xbd,
	0x23, 0x5c, 0x83, 0x3d, 0xf3, 0x59, 0x22, 0x3e, 0x12, 0x70, 0x2e, 0x3e,
	0x12, 0x08, 0xa2, 0x3d, 0xfa, 0x7a, 0xf2, 0x3d, 0x61, 0x73, 0xa5, 0x3e,
	0xc2, 0xe9, 0x9a, 0x3e, 0x5f, 0xb3, 0xaa, 0x3e, 0xdd, 0x5e, 0x9c, 0x3e,
	0x6a, 0xa3, 0x79, 0x3e, 0x00, 0xad, 0x2a, 0x3e, 0x35, 0xb1, 0xd6, 0x3d,
	0xe5, 0x36, 0xb8, 0xbc, 0x1d, 0xc5, 0x1d, 0x3e, 0xde, 0xa2, 0x38, 0x3e,
	0x94, 0x64, 0xe6, 0x3d, 0x3b, 0x7a, 0xc9, 0xbd, 0xdd, 0xa5, 0x73, 0x3d,
	0x0e, 0x24, 0x71, 0xbd, 0xff, 0x87, 0x4b, 0x3e, 0x2c, 0x0e, 0x2c, 0x3e,
	0x87, 0xf6, 0x45, 0x3d, 0x72, 0xa3, 0x14, 0x3e, 0x73, 0xe4, 0x10, 0x3d,
	0x9f, 0xc3, 0x4f, 0x3d, 0x34, 0x2d, 0xaf, 0x3d, 0x82, 0x8b, 0x3a, 0x3e,
	0x48, 0x73, 0x9b, 0x3e, 0x09, 0xdc, 0xbe, 0x3e, 0xa5, 0x75, 0x73, 0x3e,
	0x1e, 0x8e, 0x61, 0x3e, 0x3d, 0x02, 0x80, 0x3d, 0x3e, 0xe2, 0x51, 0x3e,
	0xc6, 0xfb, 0x08, 0x3e, 0xb6, 0x29, 0x43, 0x3e, 0xa9, 0x72, 0x87, 0x3e,
	0x7f, 0xcb, 0xa2, 0x3d, 0x9b, 0x91, 0xb7, 0x3d, 0x0c, 0x1a, 0x4b, 0x3e,
	0x63, 0x39, 0x27, 0xbb, 0xd6, 0xea, 0xba, 0x3d, 0x68, 0xef, 0x41, 0x3e,
	0x28, 0x54, 0xad, 0x3d, 0xe1, 0x97, 0x86, 0xbd, 0xaf, 0xea, 0x47, 0x3d,
	0x3e, 0xb2, 0xd3, 0x3d, 0x9a, 0xcd, 0x9f, 0x3e, 0x0a, 0x00, 0x70, 0x3e,
	0xb8, 0xd9, 0x7f, 0x3e, 0x53, 0x31, 0x65, 0x3e, 0x0e, 0x80, 0x24, 0x3e,
	0x1f, 0x9b, 0xd9, 0x3d, 0xfc, 0x7f, 0x01, 0x3e, 0x3a, 0x8d, 0x58, 0x3e,
	0x45, 0xa2, 0x65, 0x3e, 0xf7, 0x85, 0x4c, 0x3e, 0x16, 0x73, 0x44, 0x3d,
	0x70, 0x17, 0x5c, 0x3e, 0x91, 0x65, 0x50, 0x3e, 0x5d, 0xcb, 0x9d, 0x3d,
	0x4c, 0x8b, 0xb8, 0x3d, 0x16, 0xd2, 0x19, 0x3e, 0xa6, 0x4f, 0xfa, 0x3d,
	0x96, 0xdd, 0xe6, 0x3d, 0x92, 0x1f, 0x02, 0xbd, 0x68, 0x72, 0x9e, 0x3d,
	0x9d, 0xcc, 0x19, 0x3e, 0x31, 0xf4, 0x79, 0x3e, 0xab, 0x28, 0x47, 0x3e,
	0xd8, 0x17, 0x3c, 0x3e, 0xb4, 0x7e, 0xb4, 0x3d, 0xaa, 0x89, 0x77, 0x3e,
	0xbc, 0x03, 0x26, 0x3e, 0xf6, 0x21, 0x59, 0x3e, 0x2b, 0x4a, 0x26, 0x3e,
	0xe4, 0xf8, 0xbf, 0x3d, 0xf7, 0xb0, 0xbe, 0x3d, 0x68, 0x2c, 0x21, 0x3e,
	0xed, 0xfb, 0x39, 0x3e, 0x9c, 0x03, 0x5a, 0x3e, 0x79, 0x98, 0x77, 0x3d,
	0x14, 0x44, 0x01, 0x3d, 0x44, 0xb3, 0xa8, 0x3d, 0xca, 0x1e, 0x45, 0x3e,
	0x6e, 0xe2, 0x1e, 0xbd, 0x13, 0x40, 0x87, 0x3d, 0xff, 0xb9, 0x74, 0x3e,
	0x55, 0x53, 0x31, 0x3e, 0x36, 0xd6, 0x71, 0x3e, 0x1e, 0xdf, 0x4e, 0x3e,
	0x8d, 0x9f, 0x45, 0x3e, 0x88, 0x55, 0x46, 0x3e, 0x72, 0x65, 0xe7, 0x3d,
	0x78, 0x56, 0x85, 0x3e, 0x1d, 0x34, 0x03, 0x3e, 0x4a, 0x24, 0xca, 0x3d,
	0xef, 0x9f, 0x3a, 0x3e, 0x84, 0x5f, 0x0e, 0x3e, 0xe9, 0x64, 0xdd, 0x3d,
	0xc4, 0x4e, 0x7d, 0x3e, 0x33, 0xdf, 0x41, 0x3e, 0x35, 0x00, 0x18, 0xbc,
	0xc2, 0x1b, 0x09, 0x3e, 0x6b, 0xad, 0x44, 0x3d, 0x66, 0xf8, 0x2b, 0x3d,
	0xa4, 0x81, 0xc3, 0x3d, 0x21, 0x24, 0x93, 0x3e, 0xc9, 0x05, 0x9a, 0x3d,
	0x7a, 0xb8, 0x81, 0x3e, 0x58, 0x23, 0x89, 0x3e, 0x45, 0x03, 0x15, 0x3e,
	0x06, 0x36, 0x74, 0x3e, 0xb1, 0x36, 0x97, 0x3e, 0x3f, 0xd8, 0xb9, 0x3e,
	0xeb, 0x57, 0x9e, 0x3e, 0x47, 0xb2, 0xb7, 0x3e, 0x3b, 0xa1, 0x9b, 0x3e,
	0xdb, 0xc6, 0x76, 0x3e, 0x50, 0x6a, 0x82, 0x3e, 0x3a, 0x60, 0x33, 0x3e,
	0x06, 0x35, 0x12, 0x3e, 0x83, 0x5d, 0x4b, 0x3e, 0x01, 0x7e, 0x92, 0x3d,
	0xd3, 0xe7, 0xa3, 0x3d, 0x8e, 0x60, 0x71, 0x3e, 0x48, 0x2e, 0xf4, 0x3d,
	0xd5, 0x80, 0x81, 0x3d, 0x4a, 0x42, 0x99, 0x3d, 0x4e, 0x97, 0x3a, 0x3d,
	0x51, 0x35, 0x86, 0x3e, 0x08, 0x0c, 0x00, 0x3e, 0x83, 0xbf, 0x56, 0x3e,
	0xa8, 0x77, 0x7f, 0x3e, 0xb4, 0x97, 0xb2, 0x3e, 0x61, 0x90, 0xa0, 0x3e,
	0x78, 0x97, 0x80, 0x3e, 0xf1, 0x1d, 0xc3, 0x3e, 0xda, 0x94, 0xa1, 0x3e,
	0x3c, 0x10, 0x86, 0x3e, 0xf4, 0x32, 0x83, 0x3e, 0xf5, 0x8e, 0x41, 0x3e,
	0x56, 0x88, 0x3c, 0x3e, 0x27, 0x2d, 0x57, 0x3e, 0x75, 0x1e, 0x0c, 0x3e,
	0x45, 0x5e, 0x01, 0x3d, 0xe4, 0x0f, 0x2f, 0xbe, 0xd3, 0xd0, 0xd7, 0xbc,
	0x50, 0x46, 0xc2, 0x3d, 0x8e, 0x4f, 0xc4, 0x3d, 0x21, 0x33, 0x6c, 0x3e,
	0x7e, 0x2a, 0x79, 0x3e, 0x06, 0x49, 0x02, 0x3d, 0xdd, 0xdb, 0x3b, 0x3e,
	0x6b, 0x8c, 0x85, 0x3d, 0xb7, 0x3c, 0x80, 0x3e, 0x63, 0x1a, 0x95, 0x3d,
	0x03, 0x94, 0xa4, 0x3e, 0x97, 0xc7, 0xa1, 0x3e, 0x23, 0x37, 0x26, 0x3e,
	0xa1, 0x36, 0x93, 0x3e, 0xf3, 0x6f, 0x85, 0x3e, 0x4b, 0x7a, 0x40, 0x3e,
	0x01, 0xd1, 0x21, 0x3d, 0xd9, 0x8a, 0xc8, 0xbd, 0x9c, 0xfb, 0x6b, 0xbe,
	0x1e, 0xa0, 0x54, 0xbe, 0x67, 0xcf, 0x22, 0x3f, 0x3b, 0x14, 0x17, 0x3f,
	0xa3, 0x9d, 0x0f, 0x3f, 0xfd, 0xe7, 0x7f, 0x3e, 0xbe, 0x7c, 0xa4, 0x3e,
	0x51, 0xd5, 0x54, 0x3e, 0x4d, 0xce, 0x09, 0x3e, 0x34, 0xd7, 0x48, 0x3e,
	0xcb, 0x70, 0xa1, 0x3c, 0xa6, 0xec, 0x0f, 0x3e, 0xdf, 0x52, 0x14, 0x3e,
	0x5a, 0xc4, 0xe0, 0x3d, 0xda, 0x58, 0xb6, 0xbc, 0xde, 0x38, 0x3b, 0x3e,
	0xff, 0xd5, 0x87, 0x3c, 0xbe, 0x9d, 0xcb, 0xbd, 0xe6, 0xd4, 0x52, 0x3d,
	0x26, 0x20, 0x87, 0x3d, 0xe9, 0x7d, 0x80, 0x3e, 0x95, 0x13, 0xc0, 0x3e,
	0xc7, 0x72, 0x06, 0x3f, 0x1a, 0xa7, 0x13, 0x3f, 0x16, 0x65, 0xdc, 0x3e,
	0xbf, 0xee, 0xdf, 0x3e, 0xcd, 0x42, 0xee, 0x3e, 0x19, 0x34, 0xb0, 0x3e,
	0xb3, 0xc9, 0xbf, 0x3e, 0xd6, 0x3f, 0x80, 0x3e, 0xab, 0x83, 0x5a, 0x3e,
	0xcc, 0x23, 0x9b, 0x3e, 0x0c, 0x8d, 0xa2, 0x3e, 0xe0, 0xe3, 0xae, 0x3e,
	0xbf, 0xef, 0x83, 0x3e, 0x1f, 0xe9, 0x9a, 0x3e, 0xe5, 0x74, 0x78, 0x3e,
	0x5b, 0x21, 0x9b, 0x3e, 0x75, 0xf2, 0x58, 0x3e, 0xf7, 0x39, 0x18, 0x3e,
	0x94, 0xf7, 0x51, 0x3e, 0x87, 0x9a, 0x47, 0x3e, 0x78, 0xb9, 0xdf, 0x3e,
	0xbc, 0x9e, 0x4e, 0x3e, 0xd5, 0xf5, 0x51, 0x3e, 0xb7, 0x9f, 0xe6, 0x3e,
	0x76, 0xe2, 0xe1, 0x3e, 0xa1, 0x8d, 0xc6, 0x3e, 0x1f, 0x35, 0xcd, 0x3e,
	0x50, 0x49, 0xbd, 0x3e, 0xa7, 0x64, 0xb4, 0x3e, 0xf3, 0x5d, 0xa1, 0x3e,
	0x6f, 0x91, 0x69, 0x3e, 0xc3, 0x54, 0x85, 0x3e, 0xb2, 0x6b, 0xb8, 0x3e,
	0xc7, 0x40, 0x7e, 0x3e, 0xa4, 0x55, 0x35, 0x3e, 0xe9, 0x96, 0x2a, 0x3e,
	0x9b, 0xf5, 0x02, 0x3e, 0x34, 0x73, 0xba, 0x3d, 0xad, 0xcf, 0x08, 0x3e,
	0xd2, 0x72, 0x07, 0x3e, 0xc2, 0xaf, 0x2b, 0xbd, 0x7a, 0xf3, 0x9c, 0x3d,
	0xc2, 0x85, 0xee, 0xbc, 0x6f, 0x30, 0x0c, 0x3e, 0x30, 0x53, 0xca, 0x3e,
	0xa5, 0x43, 0x91, 0x3e, 0x7b, 0xb8, 0xa8, 0x3e, 0x25, 0xa3, 0x93, 0x3e,
	0x12, 0xb4, 0x9a, 0x3e, 0x5d, 0xce, 0xc6, 0x3e, 0x57, 0x4f, 0xa5, 0x3e,
	0x49, 0x5e, 0xd9, 0x3e, 0x83, 0x77, 0x5f, 0x3e, 0x67, 0xc1, 0x9c, 0x3e,
	0x33, 0x4e, 0x2e, 0x3e, 0x4c, 0x08, 0x5d, 0x3e, 0x06, 0xa7, 0x70, 0x3e,
	0xdc, 0x67, 0xde, 0x3d, 0x45, 0xe0, 0x80, 0x3e, 0x09, 0x94, 0x4c, 0x3d,
	0x70, 0x3f, 0x31, 0xbe, 0x73, 0xf5, 0xf8, 0xbd, 0x15, 0xda, 0xf9, 0xbd,
	0x1d, 0x19, 0xbf, 0xbc, 0xc5, 0x3e, 0x47, 0x3e, 0xe2, 0x96, 0x7d, 0x3e,
	0xd9, 0xe4, 0x29, 0x3e, 0xab, 0xbb, 0xaf, 0x3e, 0xd9, 0x87, 0x76, 0x3e,
	0x43, 0x7e, 0x08, 0x3f, 0xb4, 0xb9, 0xc8, 0x3e, 0xaa, 0xcc, 0xdc, 0x3e,
	0x75, 0x82, 0xc4, 0x3e, 0x4b, 0x71, 0x9e, 0x3e, 0x17, 0x25, 0xe3, 0x3c,
	0xef, 0x6a, 0x2a, 0x3e, 0x28, 0x8f, 0x64, 0x3e, 0xbc, 0xb6, 0xe3, 0x3d,
	0x59, 0x3d, 0xe1, 0x3d, 0x2b, 0x00, 0x57, 0x3e, 0xd9, 0x48, 0xd7, 0xbd,
	0x8a, 0xd1, 0x1a, 0xbd, 0x0d, 0x67, 0x9b, 0xbe, 0x77, 0x82, 0x5d, 0x3c,
	0x9b, 0xe7, 0xe1, 0x3d, 0x27, 0x5d, 0x24, 0x3e, 0x62, 0x7f, 0x4d, 0xbc,
	0x76, 0xd4, 0xfb, 0x3c, 0xf2, 0xd2, 0x3c, 0xbc, 0xc7, 0xab, 0x7b, 0x3e,
	0xd9, 0xab, 0x6d, 0x3e, 0x37, 0xd1, 0x16, 0x3e, 0x25, 0xa8, 0x97, 0x3e,
	0xfc, 0xd4, 0xd7, 0x3d, 0x8b, 0x89, 0xa5, 0x3e, 0x32, 0xf3, 0x48, 0x3e,
	0x00, 0x61, 0xe2, 0x3d, 0xd9, 0x40, 0x22, 0x3e, 0x40, 0xcd, 0x15, 0x3e,
	0xb8, 0x73, 0x50, 0xbd, 0xfb, 0xb5, 0xc2, 0xbc, 0x29, 0x16, 0x0c, 0xbd,
	0xc7, 0xb7, 0x1e, 0xbe, 0x12, 0xa0, 0x13, 0xbe, 0x12, 0xc5, 0xdf, 0xbc,
	0x12, 0xcf, 0x3d, 0xbe, 0x15, 0x26, 0xd2, 0xbe, 0x24, 0x83, 0x9e, 0xbe,
	0x43, 0xf8, 0xbb, 0xbe, 0x0e, 0x2d, 0xc5, 0xbd, 0xbc, 0x48, 0x2f, 0xbd,
	0xd4, 0x02, 0xf5, 0x3d, 0x56, 0xd2, 0x33, 0xbd, 0x8b, 0xac, 0x04, 0x3d,
	0x10, 0x36, 0x37, 0x3e, 0x75, 0x7b, 0x49, 0x3d, 0x8b, 0x8a, 0xd9, 0x3d,
	0xa1, 0xa6, 0xdc, 0x3d, 0xa3, 0x3c, 0x04, 0x3e, 0xde, 0x96, 0xfc, 0xbd,
	0x43, 0x9c, 0xe4, 0x3d, 0x75, 0xa1, 0x60, 0xbd, 0x29, 0x0f, 0x8f, 0xbc,
	0xf1, 0x3c, 0x00, 0xbe, 0x14, 0x92, 0xb9, 0xbd, 0x33, 0xf5, 0xe7, 0xbe,
	0x1b, 0x22, 0x9e, 0xbe, 0xa4, 0xfd, 0x97, 0xbe, 0x96, 0x17, 0x3a, 0xbe,
	0x69, 0xcb, 0xb1, 0xbd, 0x86, 0x56, 0x4b, 0xbe, 0x7d, 0xf8, 0x92, 0x3d,
	0x58, 0xf1, 0x62, 0xbb, 0x22, 0x18, 0xab, 0x3d, 0xdd, 0x00, 0xed, 0xbc,
	0x94, 0x15, 0x50, 0x3e, 0x49, 0x47, 0x52, 0x3e, 0x15, 0xfb, 0x68, 0x3e,
	0x8c, 0x3d, 0x7d, 0x3e, 0xce, 0x2c, 0x37, 0x3e, 0x20, 0x55, 0xd0, 0xbc,
	0x54, 0x8d, 0xf5, 0xbd, 0x41, 0x0f, 0x26, 0xbe, 0xa1, 0x69, 0x48, 0x3b,
	0xf2, 0x21, 0x09, 0xbe, 0xde, 0x46, 0x83, 0xbe, 0x5f, 0xf0, 0xd3, 0xbe,
	0x7b, 0xb7, 0x17, 0xbe, 0xa8, 0x65, 0x6c, 0xbe, 0xf9, 0x70, 0x1d, 0xbe,
	0x60, 0xfd, 0x7c, 0x3a, 0xc2, 0xc0, 0xb5, 0xbd, 0x24, 0xd6, 0x7f, 0xbd,
	0x47, 0xbe, 0x18, 0x3e, 0x5a, 0x2b, 0x14, 0x3b, 0x53, 0xec, 0x53, 0x3e,
	0x8a, 0xde, 0xd6, 0x3d, 0x36, 0xc8, 0x57, 0x3e, 0xd7, 0x53, 0x91, 0x3e,
	0x22, 0x2a, 0x2c, 0x3e, 0xb2, 0xf6, 0xfe, 0xbc, 0xf0, 0xe2, 0x6f, 0xbe,
	0x89, 0xc4, 0x2c, 0xbe, 0xc5, 0x2e, 0x7a, 0xbd, 0xf4, 0x94, 0xa0, 0xbe,
	0x27, 0x71, 0x4c, 0xbe, 0x2a, 0x33, 0x62, 0xbe, 0x56, 0xc1, 0x9d, 0xbd,
	0x56, 0x39, 0x4b, 0xbd, 0xee, 0x66, 0x91, 0xbd, 0x11, 0x2d, 0x49, 0x3c,
	0x51, 0xf8, 0x8c, 0x3c, 0x05, 0xae, 0x94, 0x3c, 0x05, 0x09, 0x8d, 0xbd,
	0xe1, 0x75, 0x4c, 0x3d, 0x47, 0x7f, 0x71, 0x3e, 0x00, 0xb7, 0x53, 0x3e,
	0x9a, 0xd0, 0x6f, 0x3e, 0x78, 0xa8, 0x9c, 0x3e, 0x1d, 0x97, 0x7d, 0x3e,
	0x04, 0x52, 0x45, 0xbd, 0x85, 0xab, 0xb8, 0xbd, 0x96, 0x7d, 0x4f, 0xbe,
	0xf8, 0x77, 0x6f, 0xbe, 0x36, 0x96, 0xb6, 0xbe, 0x6f, 0x97, 0x80, 0xbe,
	0x32, 0xe2, 0x70, 0xbe, 0xad, 0x2c, 0x6e, 0xbe, 0xef, 0x5a, 0x3d, 0xbe,
	0xc1, 0x6e, 0x48, 0xbd, 0x70, 0x0d, 0xd8, 0xbd, 0x7b, 0x31, 0x9f, 0xbd,
	0x99, 0xa7, 0x6c, 0x3d, 0xa3, 0xb8, 0x87, 0xbc, 0xfb, 0xf9, 0x83, 0x3d,
	0x96, 0xd6, 0x7c, 0x3e, 0x50, 0xd3, 0x45, 0x3e, 0x8f, 0x59, 0x6e, 0x3e,
	0x8a, 0x8c, 0x16, 0x3e, 0x33, 0xf3, 0x0c, 0x3e, 0x2b, 0x9f, 0x59, 0xbd,
	0xff, 0xe1, 0x6a, 0xbe, 0x1c, 0x08, 0x9f, 0xbe, 0xce, 0x7d, 0x9b, 0xbe,
	0x5a, 0x77, 0x73, 0xbe, 0x39, 0x55, 0x52, 0xbe, 0x4a, 0x3b, 0xcf, 0xbd,
	0xe8, 0xdc, 0x73, 0xbc, 0xbd, 0xee, 0xfe, 0xbd, 0x1f, 0xf7, 0xda, 0xbc,
	0x06, 0x24, 0x22, 0xbd, 0x88, 0x3b, 0x06, 0x3d, 0xac, 0x31, 0xb2, 0x3c,
	0xcc, 0xfd, 0x3e, 0xbd, 0x77, 0x7a, 0x13, 0x3d, 0x95, 0x21, 0x43, 0x3e,
	0x2d, 0x32, 0x75, 0x3d, 0x4e, 0x93, 0xad, 0x3c, 0x0d, 0x01, 0x14, 0x3d,
	0x93, 0x76, 0x3a, 0x3d, 0x5e, 0xf5, 0x4e, 0xbd, 0x10, 0xa9, 0x9e, 0xbe,
	0x5e, 0xcb, 0xc7, 0xbe, 0xb4, 0xec, 0xa1, 0xbe, 0x15, 0x99, 0xa5, 0xbc,
	0xa6, 0x64, 0x34, 0xbd, 0x76, 0x63, 0x99, 0xbd, 0x8f, 0x77, 0xd7, 0xbd,
	0x7e, 0x61, 0x66, 0xbd, 0xf8, 0x0f, 0x14, 0xbd, 0xfe, 0x4e, 0x07, 0x3d,
	0xd1, 0xc6, 0x1c, 0x3d, 0x06, 0x44, 0x86, 0x3d, 0x6d, 0x13, 0x82, 0xbd,
	0x5b, 0x7b, 0xc4, 0xbc, 0x12, 0xe9, 0xbe, 0xbc, 0xaa, 0x36, 0x22, 0x3d,
	0x97, 0xa4, 0x37, 0xbe, 0x51, 0x88, 0x69, 0xbe, 0xa2, 0x6d, 0x5d, 0xbe,
	0x38, 0x2f, 0x1e, 0xbe, 0x11, 0x97, 0xd3, 0xbe, 0xdb, 0x71, 0x94, 0xbe,
	0x86, 0x4c, 0x6f, 0xbe, 0x3d, 0x2a, 0x83, 0xbc, 0xdd, 0x3d, 0xbf, 0x3c,
	0x3a, 0x87, 0x8a, 0x3d, 0xba, 0x93, 0x64, 0xbd, 0x9a, 0xbf, 0x39, 0xbe,
	0x87, 0x2a, 0x98, 0x3b, 0x4c, 0xa1, 0x32, 0x3d, 0xa7, 0x09, 0xd3, 0xbd,
	0xbf, 0x7c, 0x62, 0xbe, 0xbb, 0x01, 0xd8, 0xbd, 0xa1, 0x3b, 0x0a, 0xbe,
	0x7f, 0xae, 0x7b, 0xbc, 0xd0, 0x46, 0x89, 0xbd, 0xf4, 0xb6, 0x4d, 0xbe,
	0x49, 0x85, 0xc7, 0xbe, 0xcf, 0xb4, 0xab, 0xbe, 0xb4, 0x6b, 0xa4, 0xbe,
	0xd9, 0x38, 0xc8, 0xbe, 0xa6, 0xb9, 0x71, 0xbe, 0x9c, 0x37, 0x6e, 0x3c,
	0x8e, 0x42, 0x0e, 0x3e, 0x58, 0x78, 0x34, 0xbd, 0x90, 0x12, 0xa1, 0xbd,
	0xb8, 0x0d, 0x76, 0xbd, 0x17, 0x17, 0x3c, 0xbc, 0x9e, 0xa5, 0x29, 0xbd,
	0x6c, 0xba, 0x57, 0xbe, 0xa5, 0x2b, 0xbf, 0xbd, 0x8c, 0xe6, 0xe3, 0xbd,
	0x75, 0x4b, 0x08, 0xbe, 0x33, 0xf3, 0x6a, 0xbe, 0x6b, 0xc9, 0x67, 0xbe,
	0x01, 0xe7, 0x83, 0xbe, 0x3d, 0xca, 0xf0, 0xbe, 0xc8, 0x52, 0xd4, 0xbe,
	0x11, 0x8a, 0xd1, 0xbe, 0xfc, 0xd4, 0x8e, 0xbe, 0xcb, 0x12, 0x7a, 0xbe,
	0x96, 0x98, 0x24, 0xbe, 0x27, 0xc3, 0x4d, 0xbd, 0x46, 0x1f, 0x20, 0x3c,
	0xd8, 0xed, 0x29, 0xbc, 0x5f, 0x8f, 0x79, 0xbe, 0x65, 0xd1, 0x78, 0xbe,
	0x32, 0x3b, 0xd1, 0xbd, 0x0a, 0x8c, 0x09, 0xbe, 0xf0, 0x44, 0x5b, 0xbe,
	0x9e, 0xf8, 0x31, 0xbe, 0x59, 0x38, 0x0c, 0xbe, 0xa9, 0x21, 0x55, 0xbe,
	0xce, 0x0a, 0x7d, 0xbe, 0x64, 0xc5, 0x42, 0xbe, 0x10, 0xa1, 0xbe, 0xbe,
	0xc6, 0xfb, 0xf7, 0xbe, 0xee, 0x2b, 0x00, 0xbf, 0x36, 0x7c, 0xcd, 0xbe,
	0x8e, 0x1c, 0xf1, 0xbe, 0x63, 0x8a, 0x67, 0xbe, 0xd6, 0xc3, 0x56, 0xbe,
	0xd2, 0xa5, 0x0b, 0xbe, 0x3d, 0x69, 0xc3, 0xbb, 0x74, 0x79, 0xfb, 0xbd,
	0xc1, 0xbc, 0x3b, 0xbe, 0xc7, 0x60, 0x3c, 0xbe, 0xaa, 0x92, 0x0b, 0xbe,
	0x20, 0xb1, 0x1c, 0xbe, 0x74, 0x32, 0x93, 0xbe, 0xc8, 0xec, 0x75, 0xbe,
	0x91, 0xd2, 0xd6, 0xbd, 0x4c, 0x24, 0x4a, 0xbe, 0xdb, 0xe3, 0x67, 0xbe,
	0xf7, 0x70, 0x14, 0xbe, 0x87, 0x87, 0x7a, 0xbe, 0x2d, 0xcb, 0xb2, 0xbe,
	0xd6, 0xbd, 0xd4, 0xbe, 0xe1, 0x24, 0xf4, 0xbe, 0x7a, 0x27, 0x83, 0xbe,
	0xe9, 0x6d, 0xd9, 0xbe, 0xc4, 0x09, 0xbe, 0xbe, 0x16, 0x5c, 0x71, 0xbe,
	0x78, 0x17, 0xa0, 0xbe, 0x8b, 0x5c, 0xc5, 0xbe, 0x94, 0x48, 0xa8, 0xbe,
	0xfc, 0x56, 0xcd, 0xbe, 0x12, 0xa9, 0xe4, 0xbe, 0xa5, 0xb0, 0x76, 0xbe,
	0xb6, 0x80, 0xd0, 0xbe, 0xbc, 0x73, 0x00, 0xbe, 0x79, 0xf1, 0x5e, 0xbe,
	0x22, 0x1e, 0xc7, 0xbe, 0x05, 0x60, 0xa3, 0xbe, 0x0c, 0x81, 0x8f, 0xbe,
	0x21, 0xd4, 0x8c, 0xbe, 0x69, 0xfd, 0xd7, 0xbe, 0x1d, 0xf8, 0xea, 0xbe,
	0xc2, 0xbd, 0xea, 0xbe, 0x3f, 0x04, 0xc0, 0xbe, 0x31, 0x5f, 0xb8, 0xbe,
	0xc4, 0xfc, 0xa4, 0xbe, 0x0e, 0xb3, 0x82, 0xbe, 0x8f, 0x76, 0xe6, 0xbe,
	0x81, 0xcf, 0xf8, 0xbe, 0x44, 0xa1, 0x93, 0xbe, 0x8d, 0x8a, 0xd9, 0xbe,
	0x05, 0x2d, 0xcf, 0xbe, 0xa0, 0x38, 0xca, 0xbe, 0x75, 0xbc, 0xd1, 0xbe,
	0x1f, 0xea, 0xd9, 0xbe, 0x77, 0x02, 0x85, 0xbe, 0x09, 0xef, 0x98, 0xbe,
	0xe0, 0xd2, 0xc8, 0xbe, 0x96, 0xbe, 0xe5, 0xbe, 0x74, 0xcb, 0xe8, 0xbe,
	0x47, 0x3e, 0xe2, 0xbe, 0x3f, 0x6d, 0x12, 0xbf, 0xf0, 0x9d, 0xd2, 0xbe,
	0xcd, 0x8c, 0x48, 0xbe, 0xaa, 0x93, 0x4e, 0xbe, 0x8a, 0x57, 0x9b, 0xbe,
	0x6c, 0xc3, 0x76, 0xbe, 0xdc, 0xe3, 0xae, 0xbe, 0xec, 0x5f, 0x8a, 0xbe,
	0xdb, 0x35, 0xb5, 0xbd, 0x44, 0x94, 0x83, 0xbe, 0x1d, 0xcc, 0x74, 0xbe,
	0x7d, 0xb4, 0x74, 0xbe, 0x77, 0xd1, 0x89, 0xbe, 0x33, 0xc6, 0x3e, 0xbe,
	0xe5, 0x85, 0xb0, 0xbe, 0xc8, 0xe2, 0x03, 0xbe, 0xbe, 0xc1, 0xa2, 0xbe,
	0x9e, 0x6b, 0xab, 0xbe, 0x2d, 0x13, 0xf3, 0xbd, 0x5f, 0x7c, 0x04, 0xbe,
	0x8a, 0x8d, 0xde, 0xbe, 0xc6, 0x07, 0x1f, 0xbf, 0x80, 0xc5, 0xc5, 0xbe,
	0x16, 0xb4, 0xe2, 0xbe, 0x3c, 0xd1, 0x91, 0xbe, 0x7b, 0x56, 0xc5, 0xbd,
	0x09, 0x3f, 0xe7, 0xbd, 0x6f, 0x39, 0xab, 0x3d, 0xcb, 0x70, 0x0b, 0x3e,
	0x1e, 0xc1, 0x32, 0xbd, 0xa4, 0x86, 0x3f, 0x3c, 0x8f, 0xaa, 0x0b, 0xbd,
	0x9a, 0x4e, 0x88, 0x3d, 0xb8, 0x22, 0x02, 0xbd, 0x3c, 0xc9, 0x04, 0x3d,
	0x80, 0xd6, 0xe2, 0x3d, 0xb9, 0xda, 0xef, 0xbc, 0x34, 0xcb, 0xb1, 0xbc,
	0xf8, 0x50, 0x05, 0x3b, 0x4b, 0x75, 0x5d, 0xbe, 0xe7, 0xad, 0xfe, 0xbd,
	0xe2, 0xe0, 0x18, 0x3d, 0xd8, 0x36, 0x8f, 0xbe, 0x8a, 0x31, 0x5c, 0xbe,
	0xf9, 0xac, 0x35, 0xbe, 0xf7, 0x85, 0x0c, 0xbe, 0xfe, 0x4e, 0x5d, 0xbd,
	0x9c, 0xe3, 0xd9, 0x3d, 0xb1, 0xad, 0x2c, 0x3c, 0x25, 0x55, 0x28, 0x3d,
	0x07, 0x51, 0x0c, 0xbc, 0x18, 0x96, 0xa7, 0x3d, 0xe7, 0xd1, 0xc7, 0x3c,
	0x77, 0x57, 0x19, 0x3e, 0x18, 0x1e, 0x95, 0x3d, 0xe9, 0xf2, 0xa4, 0xbc,
	0x10, 0xb5, 0x3d, 0xba, 0xf0, 0x3b, 0xfd, 0x3d, 0xd4, 0xbc, 0x07, 0xbe,
	0xdb, 0x75, 0xc4, 0x3d, 0xe9, 0x12, 0xaf, 0xbd, 0x87, 0x3b, 0xf2, 0x3d,
	0x5d, 0x37, 0x50, 0x3d, 0xaa, 0x93, 0xf3, 0xbc, 0x62, 0xfd, 0x36, 0xbd,
	0xf9, 0x6b, 0xba, 0xbd, 0xf6, 0x88, 0xfe, 0xbd, 0x8f, 0xf4, 0x02, 0xbd,
	0xfc, 0x0f, 0xf8, 0xbd, 0xaa, 0x35, 0x12, 0x3d, 0x22, 0xcf, 0x36, 0xbd,
	0xa4, 0xc4, 0xbc, 0x3d, 0xe2, 0xc0, 0xc4, 0x3d, 0x8d, 0x6c, 0x21, 0x3e,
	0x32, 0xa4, 0xf9, 0x39, 0x70, 0xf7, 0xa6, 0x3d, 0x72, 0x7b, 0x40, 0x3d,
	0x78, 0xbf, 0xbb, 0xbd, 0x07, 0x11, 0x29, 0x3d, 0xe0, 0x2d, 0x30, 0x3d,
	0xb3, 0x7f, 0x1e, 0x3e, 0x03, 0x4e, 0xd9, 0x3d, 0x5a, 0x6d, 0x33, 0x3e,
	0x1f, 0xd5, 0x84, 0x3e, 0xef, 0xfa, 0x15, 0x3e, 0x3e, 0x7c, 0x12, 0xbd,
	0x79, 0xcd, 0xb7, 0x3c, 0xa1, 0x1b, 0x8a, 0xbc, 0x36, 0xf9, 0x07, 0xbd,
	0x35, 0xe2, 0x05, 0x3c, 0x0a, 0xf9, 0x4c, 0xbd, 0xd0, 0xf1, 0x4b, 0xbd,
	0x80, 0x61, 0xd0, 0xbd, 0x39, 0xbc, 0x1b, 0x3d, 0x01, 0x7c, 0x1f, 0xbd,
	0x36, 0x0b, 0xc4, 0x3c, 0xc7, 0xa3, 0xcc, 0xbd, 0xe4, 0xed, 0x56, 0x3d,
	0xd9, 0x41, 0x4c, 0x3e, 0x11, 0xd1, 0x1b, 0x3e, 0xa0, 0x34, 0x9e, 0x3a,
	0xf7, 0x89, 0xd3, 0x3c, 0x7d, 0x39, 0x79, 0x3e, 0x40, 0x6d, 0x51, 0x3e,
	0x47, 0x5e, 0x06, 0x3e, 0xcd, 0xf0, 0x55, 0x3e, 0xd5, 0xb5, 0xc5, 0x3d,
	0x73, 0x2e, 0xcf, 0x3d, 0xa6, 0xf3, 0xa5, 0x3b, 0xe4, 0xba, 0x90, 0xbd,
	0x3b, 0x0d, 0xc7, 0xbc, 0x17, 0xf3, 0x90, 0xbe, 0x75, 0x2a, 0xe2, 0xbd,
	0x62, 0x5f, 0x8c, 0xbd, 0xa6, 0x89, 0x7f, 0xbe, 0x28, 0x0e, 0xf4, 0xbc,
	0x63, 0x90, 0x87, 0x3d, 0x8e, 0x1d, 0x91, 0xbd, 0x6a, 0x6e, 0x67, 0xbd,
	0xf8, 0x49, 0x8a, 0x3d, 0x31, 0x14, 0x62, 0x3c, 0xaa, 0xbe, 0x63, 0x3e,
	0xe2, 0x28, 0x39, 0x3e, 0xe9, 0xe4, 0x1b, 0x3e, 0x00, 0x0b, 0x5c, 0x3e,
	0x49, 0x15, 0xc0, 0x3d, 0x0e, 0x63, 0x02, 0x3e, 0xd9, 0xf6, 0x41, 0x3e,
	0xbf, 0x55, 0xae, 0x3d, 0x5d, 0x94, 0xaf, 0x3d, 0x45, 0x8d, 0x1c, 0x3d,
	0x3c, 0x7d, 0xf5, 0xbd, 0x9f, 0xe5, 0x34, 0xbd, 0x45, 0xe9, 0x16, 0xbd,
	0x8b, 0xbf, 0xdc, 0xbd, 0x79, 0xfa, 0x8e, 0xbb, 0x23, 0xb4, 0xd0, 0x3d,
	0x6e, 0x1a, 0x43, 0x3e, 0x90, 0x0d, 0x5e, 0x3d, 0xbc, 0x37, 0xc2, 0x3d,
	0x9a, 0x98, 0xe9, 0x3d, 0x6a, 0xf4, 0x9b, 0x3e, 0xac, 0xe4, 0xaf, 0x3d,
	0xf5, 0x29, 0xe6, 0x3c, 0x01, 0x06, 0x80, 0x3d, 0x3f, 0xc3, 0xeb, 0x3d,
	0x84, 0xaa, 0x3e, 0x3d, 0x92, 0x83, 0xc9, 0x3d, 0x0b, 0xdc, 0x91, 0x3d,
	0x87, 0xeb, 0x50, 0x3e, 0xce, 0x3f, 0x5d, 0x3d, 0xe6, 0x0a, 0xa8, 0x3d,
	0x2f, 0x6d, 0xee, 0x3b, 0xe6, 0x6f, 0x87, 0x3d, 0x59, 0x29, 0x53, 0xbd,
	0x78, 0xf1, 0x96, 0xbd, 0x01, 0xee, 0x20, 0x3e, 0xa7, 0x87, 0xe2, 0x3d,
	0x37, 0x19, 0x31, 0x3e, 0x91, 0xc3, 0x4d, 0x3d, 0x78, 0xaf, 0x84, 0x3e,
	0x5c, 0x55, 0x9a, 0x3e, 0x5a, 0xc3, 0xf5, 0x3c, 0xcb, 0x7c, 0xbd, 0xbc,
	0x1a, 0xa0, 0x12, 0x3d, 0x2f, 0x2a, 0x90, 0xbd, 0xb7, 0x96, 0x63, 0x3d,
	0xbd, 0x42, 0x21, 0x3e, 0x11, 0x49, 0x21, 0x3e, 0xdc, 0x80, 0xc1, 0x3d,
	0x8b, 0x92, 0x1b, 0x3e, 0x68, 0x02, 0xa0, 0x3d, 0x04, 0x0d, 0xb2, 0x3d,
	0xf4, 0x96, 0xcd, 0x3c, 0xae, 0x2a, 0xae, 0xbc, 0x09, 0x7e, 0x85, 0xbd,
	0x57, 0xb4, 0xcc, 0xbd, 0x06, 0x8d, 0xcd, 0xbc, 0x9b, 0xfe, 0x0a, 0xbe,
	0x03, 0xeb, 0xaa, 0x3d, 0xa7, 0xca, 0x05, 0x3e, 0xe7, 0xbb, 0x42, 0x3e,
	0x2a, 0x45, 0xfd, 0xbd, 0x0c, 0x96, 0xff, 0xbd, 0x63, 0x8e, 0x01, 0xbe,
	0xa3, 0xd6, 0xf7, 0x3d, 0x5f, 0x16, 0xa1, 0xbd, 0xab, 0x00, 0xd7, 0x3d,
	0xe1, 0x52, 0x32, 0x3e, 0x51, 0x78, 0x60, 0x3d, 0xe2, 0xec, 0x8d, 0x3e,
	0xbe, 0x6a, 0x94, 0x3d, 0xb0, 0xf4, 0x0c, 0x3e, 0x05, 0xc0, 0xf5, 0x3d,
	0x8d, 0xb3, 0xbe, 0xbc, 0x06, 0xe8, 0xee, 0x3c, 0x93, 0x82, 0xb7, 0x3c,
	0xb6, 0xc7, 0x91, 0xbb, 0x44, 0xa2, 0x4a, 0xbd, 0xad, 0xc9, 0xfe, 0xbd,
	0xa2, 0xdf, 0xde, 0xbd, 0x90, 0xd2, 0x0c, 0xbe, 0x05, 0x6a, 0x81, 0xbe,
	0x7c, 0x5d, 0xa4, 0xbd, 0xbc, 0x02, 0xce, 0xbd, 0x97, 0x70, 0xe9, 0xbc,
	0x35, 0x3b, 0x3e, 0x3d, 0xd7, 0xda, 0x40, 0xbb, 0x38, 0xda, 0x67, 0x3e,
	0xd8, 0xe0, 0xcd, 0x3d, 0xb5, 0xb9, 0x69, 0x3d, 0x1c, 0x33, 0xeb, 0x3d,
	0x52, 0xad, 0xac, 0x3d, 0xad, 0x84, 0x25, 0x3d, 0x81, 0x07, 0x42, 0x3c,
	0xbf, 0x6e, 0xa3, 0x3d, 0xed, 0xfb, 0x93, 0x3d, 0xd0, 0x27, 0xdf, 0xbd,
	0xa3, 0x09, 0x75, 0xbd, 0xa7, 0x90, 0x87, 0xbd, 0x55, 0xe2, 0xb2, 0xbe,
	0xa8, 0x6e, 0x02, 0xbf, 0x4a, 0x7a, 0xd5, 0xbe, 0x33, 0x92, 0x13, 0xbe,
	0x74, 0xe1, 0x85, 0x3c, 0x36, 0x5d, 0x8d, 0x3b, 0x4e, 0x3b, 0x6d, 0xbd,
	0x24, 0x1c, 0xa4, 0x3d, 0x70, 0xff, 0x22, 0x3e, 0xd8, 0x6a, 0x22, 0x3e,
	0x9d, 0x89, 0x3b, 0x3d, 0xaa, 0x6a, 0x14, 0x3e, 0x8c, 0x9f, 0x1c, 0x3e,
	0xe6, 0x1e, 0x17, 0x3e, 0xe9, 0x7b, 0xae, 0xbd, 0xe5, 0x27, 0x14, 0x3d,
	0x83, 0x0d, 0x52, 0xbd, 0xe0, 0x51, 0xf2, 0x3c, 0xdb, 0xfd, 0x39, 0xbd,
	0x70, 0x48, 0xad, 0xbe, 0x94, 0xa2, 0xeb, 0xbe, 0x55, 0x15, 0xd8, 0xbe,
	0x0e, 0x53, 0xe7, 0xbe, 0x99, 0x2a, 0x86, 0xbe, 0x8f, 0xba, 0x53, 0x3d,
	0x9c, 0x09, 0xa7, 0x3d, 0x19, 0xc5, 0x80, 0x3d, 0xaf, 0x0d, 0x27, 0x3c,
	0x11, 0xc0, 0xdc, 0x3d, 0x9d, 0x62, 0xb5, 0x3d, 0xd9, 0x3e, 0x05, 0x3e,
	0x8b, 0x1e, 0x46, 0x3d, 0x4b, 0xd9, 0xb6, 0x3d, 0xdc, 0x75, 0x21, 0x3c,
	0x82, 0x8c, 0xcc, 0xbd, 0xa1, 0xb0, 0xc8, 0xbc, 0xe7, 0x34, 0x2e, 0x3d,
	0xd0, 0x77, 0x61, 0xbd, 0x19, 0xc2, 0x85, 0xbe, 0xc7, 0xc0, 0x9d, 0xbe,
	0x2f, 0x6c, 0x63, 0xbe, 0x2f, 0xcd, 0x8f, 0xbe, 0x8d, 0x04, 0x4a, 0xbe,
	0xa0, 0xac, 0x89, 0xbd, 0xde, 0xfc, 0xaa, 0x3d, 0xaf, 0x6d, 0x2c, 0xbd,
	0x38, 0x93, 0x9f, 0x3d, 0x71, 0x13, 0x25, 0x3e, 0x24, 0x2c, 0x66, 0x3e,
	0x48, 0x4e, 0x0e, 0x3e, 0x82, 0x51, 0x09, 0x3e, 0x79, 0xef, 0x09, 0x3e,
	0xe0, 0x4a, 0x31, 0xbd, 0x29, 0x5a, 0xb9, 0x3c, 0x8f, 0x6d, 0xb2, 0x3c,
	0xc4, 0x58, 0xc3, 0xbd, 0xf5, 0xf6, 0x59, 0xbd, 0x21, 0xb3, 0x35, 0xbe,
	0x3c, 0x4f, 0x8a, 0xbe, 0x80, 0x16, 0x22, 0xbe, 0x32, 0x3d, 0x7e, 0xbc,
	0xb7, 0xcd, 0x1f, 0xbe, 0x7a, 0xf5, 0xb5, 0xbd, 0x2d, 0xe3, 0x51, 0x3c,
	0xf9, 0xc1, 0x86, 0x3d, 0xd3, 0x27, 0xb7, 0xbd, 0x7e, 0xde, 0x18, 0x3e,
	0xec, 0x40, 0x42, 0x3e, 0xc6, 0x46, 0x6d, 0x3e, 0x87, 0xfe, 0x8d, 0x3e,
	0x6c, 0x34, 0x12, 0x3e, 0x22, 0x10, 0x14, 0x3d, 0xc9, 0x1f, 0xc6, 0x3d,
	0x47, 0x62, 0x7b, 0xbd, 0xe2, 0xfe, 0x50, 0xbd, 0xb4, 0x79, 0x36, 0xbe,
	0xb3, 0x32, 0xf8, 0xbd, 0x8c, 0xf6, 0x1f, 0xbe, 0x30, 0x64, 0xf8, 0x3b,
	0x4c, 0xf2, 0x80, 0x3d, 0x31, 0xa6, 0x6d, 0xbd, 0x45, 0xa4, 0xd9, 0x3d,
	0xdc, 0x57, 0x0c, 0x3e, 0xee, 0x46, 0x89, 0x3d, 0x70, 0x6f, 0xd9, 0x3d,
	0x0e, 0x63, 0x60, 0x3d, 0xdd, 0x39, 0x31, 0x3d, 0x74, 0x4e, 0xeb, 0x3d,
	0xab, 0x91, 0x2d, 0x3d, 0xc0, 0x10, 0x25, 0x3d, 0x07, 0x01, 0x33, 0x3d,
	0x1a, 0x7f, 0x68, 0x3c, 0xff, 0x24, 0x37, 0xbd, 0x76, 0x44, 0x07, 0x3d,
	0x63, 0xc4, 0xd6, 0xbd, 0x6a, 0xef, 0x87, 0x3d, 0xad, 0x65, 0x8f, 0xbd,
	0xd4, 0x3f, 0xa3, 0x3c, 0x5f, 0x8f, 0x6d, 0x3d, 0x40, 0x22, 0x80, 0x3d,
	0x5a, 0x0c, 0x3a, 0x3e, 0x33, 0x43, 0xe4, 0x3d, 0x18, 0xcb, 0x05, 0x3e,
	0xdb, 0x00, 0x86, 0x3e, 0xd9, 0x70, 0x2c, 0x3e, 0xa5, 0x87, 0x90, 0xbc,
	0xf0, 0x4c, 0x01, 0xbe, 0x37, 0x8a, 0x4d, 0xbe, 0xf1, 0x4b, 0x80, 0xbe,
	0xa7, 0x95, 0x02, 0xbe, 0x30, 0xd4, 0x0b, 0xbe, 0x55, 0x04, 0x7b, 0xbd,
	0xee, 0x6d, 0x8e, 0xbd, 0x34, 0x46, 0xe0, 0x3c, 0x96, 0x42, 0x38, 0x3d,
	0xf4, 0x2a, 0x2a, 0x3e, 0xea, 0xd0, 0x26, 0xbc, 0xc1, 0xb4, 0x2f, 0x3c,
	0x41, 0xcb, 0xd6, 0x3d, 0x60, 0xfc, 0xdf, 0x3d, 0x47, 0x9f, 0x95, 0x3d,
	0xf8, 0x90, 0x08, 0x3c, 0x85, 0xd3, 0x4d, 0x3e, 0x7c, 0xbd, 0x23, 0x3e,
	0xe7, 0xaa, 0x21, 0x3e, 0x2f, 0x13, 0x6f, 0xbe, 0xc0, 0x13, 0xd1, 0xbe,
	0xf1, 0xf7, 0xb9, 0xbe, 0x3e, 0xc5, 0x75, 0xbe, 0xdd, 0x49, 0x04, 0xbe,
	0x5a, 0x1d, 0x11, 0xbe, 0x8f, 0xac, 0x9b, 0xbd, 0x75, 0x50, 0x54, 0x3d,
	0x55, 0x94, 0xfb, 0xbd, 0xd4, 0xa5, 0xd1, 0xbd, 0xd3, 0xf7, 0x8b, 0x3d,
	0x64, 0xad, 0x18, 0x3d, 0xe2, 0x3e, 0x7b, 0xbd, 0x51, 0x55, 0x03, 0x3e,
	0x6d, 0x4c, 0x3a, 0x3e, 0x36, 0x89, 0x05, 0x3e, 0xd7, 0x21, 0x08, 0xbd,
	0x11, 0x76, 0xbd, 0x3d, 0x92, 0xf5, 0xeb, 0x3d, 0x97, 0xd5, 0x5f, 0xbe,
	0xbf, 0x2e, 0x8a, 0xbe, 0xbc, 0xf9, 0x10, 0xbe, 0x4f, 0x0f, 0x90, 0xbb,
	0x92, 0x54, 0x4a, 0xbc, 0xc0, 0xf1, 0xe7, 0x3d, 0x90, 0x30, 0x8d, 0xbd,
	0x22, 0x82, 0x09, 0x3e, 0xe6, 0x58, 0xe8, 0x3c, 0x05, 0x67, 0xd9, 0xbd,
	0xf9, 0x56, 0x94, 0x3d, 0xb8, 0xae, 0xa4, 0xbc, 0xb1, 0x7e, 0x3c, 0x3d,
	0x25, 0xca, 0xa5, 0x3d, 0x9a, 0x71, 0xa8, 0xbd, 0x45, 0xf7, 0xbd, 0xba,
	0x2c, 0x9c, 0x67, 0xbd, 0x64, 0x28, 0xa9, 0x3d, 0x9a, 0xbc, 0xe5, 0xbd,
	0x79, 0xd3, 0xe6, 0xbc, 0xed, 0x33, 0x26, 0xbe, 0x8b, 0x6c, 0x99, 0xbd,
	0x78, 0x6f, 0x60, 0x3e, 0x8a, 0xce, 0x18, 0x3e, 0x80, 0x57, 0x29, 0x3e,
	0xc2, 0x9f, 0x0e, 0x3e, 0x29, 0x97, 0xb0, 0x3d, 0x71, 0xa2, 0xef, 0xbc,
	0x0f, 0x94, 0x18, 0x3e, 0xad, 0x52, 0x0b, 0x3e, 0x50, 0xef, 0x69, 0x3e,
	0xa6, 0xc2, 0x2b, 0x3e, 0x89, 0xab, 0xc3, 0x3d, 0x5d, 0xc3, 0x58, 0x3b,
	0xf4, 0x97, 0x40, 0x3d, 0xda, 0x70, 0x83, 0x3d, 0x16, 0x46, 0xcf, 0xbd,
	0x21, 0xb5, 0x40, 0x3d, 0x46, 0x8d, 0x33, 0xbf, 0x76, 0x30, 0x03, 0xbe,
	0xb4, 0x00, 0x26, 0xbe, 0xc0, 0xd5, 0x9a, 0x3d, 0x1e, 0x44, 0x49, 0x3e,
	0xf6, 0x08, 0xd9, 0xbc, 0xf3, 0x61, 0x74, 0xbd, 0xf5, 0xb0, 0x9a, 0x3c,
	0xc7, 0xe3, 0x58, 0x3b, 0x40, 0x14, 0xbd, 0xbd, 0xef, 0xbe, 0x2a, 0xbd,
	0x21, 0x80, 0x52, 0xbd, 0xbc, 0x18, 0x00, 0x3e, 0x83, 0x3e, 0x8b, 0x3c,
	0x7a, 0x6a, 0x23, 0x3e, 0x8e, 0x6d, 0x03, 0x3e, 0xda, 0xc3, 0xbe, 0x3d,
	0x16, 0x64, 0x37, 0x3c, 0xe9, 0x22, 0x10, 0xbb, 0x74, 0xd1, 0xc4, 0xbe,
	0x1c, 0xac, 0x49, 0xbf, 0xef, 0xfa, 0x09, 0xbf, 0x3d, 0x4c, 0x15, 0xbf,
	0xd9, 0xeb, 0x39, 0xbe, 0x45, 0x22, 0xc2, 0x3d, 0x20, 0x4c, 0x8c, 0x3e,
	0xb1, 0x4a, 0xb7, 0x3e, 0xf9, 0x7e, 0xbf, 0x3e, 0x10, 0x64, 0x85, 0x3e,
	0x65, 0xe9, 0x9b, 0x3e, 0x6f, 0x3d, 0x43, 0x3e, 0x5f, 0xce, 0x63, 0x3e,
	0x2e, 0x1e, 0x4b, 0x3e, 0x36, 0x94, 0xda, 0x3d, 0x9e, 0x03, 0x61, 0x3e,
	0x64, 0x84, 0x78, 0x3e, 0xb3, 0x47, 0x5f, 0x3d, 0x80, 0xa9, 0x12, 0x3e,
	0x17, 0x1f, 0x38, 0xbe, 0x61, 0x5d, 0x11, 0xbf, 0x2c, 0x20, 0xfa, 0xbe,
	0x91, 0x69, 0xb8, 0xbe, 0xa7, 0x70, 0xe2, 0xbe, 0x2d, 0x31, 0x8e, 0x3c,
	0xbc, 0xe8, 0x3d, 0x3e, 0x6b, 0xde, 0x80, 0x3d, 0x65, 0xe8, 0xef, 0x3d,
	0x17, 0xdf, 0xa1, 0x3e, 0x14, 0x6f, 0x96, 0x3e, 0x89, 0x5d, 0xba, 0x3e,
	0x62, 0xb4, 0x80, 0x3e, 0xad, 0x0b, 0x6d, 0x3e, 0xae, 0x7f, 0xce, 0x3e,
	0x40, 0xb7, 0x86, 0x3e, 0x2c, 0xd5, 0x6c, 0x3e, 0x64, 0x0b, 0x4b, 0x3c,
	0xf8, 0xad, 0x40, 0x3d, 0xeb, 0x53, 0xa6, 0xbd, 0x5d, 0x19, 0x09, 0xbe,
	0x33, 0xaa, 0xcf, 0xbd, 0xa5, 0x24, 0xac, 0xbe, 0x24, 0x47, 0x59, 0xbd,
	0xd8, 0xd6, 0xd3, 0xbd, 0x1d, 0x9d, 0xa9, 0xbd, 0x52, 0x24, 0x37, 0xbe,
	0x51, 0x6a, 0xc2, 0xbd, 0x7a, 0xa7, 0xd3, 0xbd, 0x0a, 0x68, 0x20, 0x3a,
	0x62, 0xbb, 0xaa, 0x3e, 0xc4, 0x53, 0x5e, 0x3e, 0xfe, 0x42, 0x5a, 0x3e,
	0xdf, 0xbf, 0x23, 0x3e, 0xc0, 0xa7, 0x62, 0x3e, 0xb4, 0xe6, 0x21, 0xbd,
	0x29, 0xc8, 0x3d, 0xbd, 0x42, 0xc7, 0xa8, 0x3b, 0x19, 0x78, 0x28, 0xbd,
	0xa2, 0x9c, 0xc4, 0xbd, 0xcb, 0xed, 0x36, 0xbe, 0x1e, 0x0a, 0x00, 0xba,
	0x0d, 0x5b, 0x3c, 0x3e, 0x07, 0x57, 0x18, 0x3e, 0x2b, 0x65, 0x47, 0x3d,
	0x3d, 0xc5, 0xe0, 0x3a, 0x33, 0x5d, 0x53, 0xbd, 0x5e, 0x12, 0x39, 0x3c,
	0x08, 0x94, 0xd6, 0x3c, 0xa1, 0x51, 0x69, 0x3d, 0xb9, 0xac, 0xb3, 0x3d,
	0x7f, 0x00, 0x46, 0x3e, 0xf5, 0xca, 0xc7, 0x3d, 0x87, 0xa9, 0x38, 0xbd,
	0x67, 0x66, 0x58, 0x3b, 0x83, 0xdd, 0xbd, 0xbc, 0xf9, 0x0d, 0xf8, 0xbd,
	0xd4, 0xde, 0x80, 0xbd, 0x5b, 0x73, 0x81, 0x3d, 0x54, 0x32, 0xc5, 0x3b,
	0xca, 0x09, 0x39, 0xbe, 0x9c, 0xbf, 0x15, 0x3d, 0xf4, 0x9a, 0xd5, 0x3e,
	0x80, 0x18, 0x08, 0x3e, 0x9b, 0xe0, 0x85, 0x3e, 0x46, 0x81, 0x02, 0x3e,
	0x7f, 0x80, 0xf7, 0x3c, 0x4a, 0xd4, 0x46, 0x3d, 0x90, 0x89, 0x0c, 0x3e,
	0x9b, 0xdc, 0xd0, 0x3c, 0x7e, 0xcb, 0x09, 0x3e, 0x5f, 0xf3, 0xea, 0x3d,
	0xd6, 0x0e, 0x86, 0x3d, 0x58, 0xb5, 0x22, 0x3d, 0x62, 0x13, 0xa7, 0xbb,
	0x1b, 0xd9, 0xaa, 0x3d, 0x47, 0x2b, 0x37, 0x3d, 0x54, 0x50, 0xf2, 0x3b,
	0x5d, 0xf8, 0x0c, 0x3e, 0x97, 0x7c, 0x32, 0x3c, 0xe1, 0x10, 0xd7, 0x3d,
	0x77, 0x8f, 0x98, 0x3d, 0x82, 0x3c, 0xc5, 0x3e, 0xf4, 0xfc, 0x43, 0x3e,
	0x7d, 0x16, 0x97, 0x3e, 0xe3, 0xd5, 0xbb, 0x3d, 0xc9, 0x36, 0xa1, 0x3d,
	0x1b, 0x95, 0xb3, 0x3d, 0x18, 0x02, 0x74, 0x3d, 0xdf, 0xef, 0x23, 0x3e,
	0x7b, 0xab, 0x3e, 0x3e, 0x5e, 0x4f, 0x82, 0x3d, 0x4c, 0x4f, 0xef, 0x3d,
	0x4d, 0x1c, 0xb3, 0x3d, 0xc7, 0xd5, 0xb8, 0x3d, 0x60, 0x29, 0x6d, 0x3e,
	0x87, 0xaa, 0x50, 0x3e, 0xd6, 0x3c, 0x64, 0x3e, 0x67, 0x5b, 0x55, 0x3e,
	0x0a, 0x82, 0x85, 0x3e, 0xf8, 0x2a, 0x8e, 0x3e, 0x84, 0x0f, 0x22, 0x3e,
	0x56, 0x52, 0x84, 0x3e, 0x78, 0x14, 0xac, 0x3e, 0x8e, 0xe3, 0xa7, 0x3e,
	0x44, 0x32, 0x1b, 0x3e, 0x8c, 0x26, 0xb1, 0x3d, 0x54, 0x53, 0xcc, 0x3d,
	0x4d, 0x08, 0x32, 0x3e, 0xae, 0xdd, 0x7a, 0x3e, 0xd5, 0x47, 0x9f, 0x3e,
	0xdc, 0xc1, 0x41, 0x3e, 0x40, 0xf6, 0x5a, 0x3e, 0x28, 0x59, 0x40, 0x3e,
	0x44, 0xe2, 0xa4, 0x3e, 0xfd, 0x0c, 0x2b, 0x3e, 0x5f, 0x6e, 0x7c, 0x3e,
	0xd2, 0x41, 0xc0, 0x3e, 0x33, 0xab, 0x20, 0x3e, 0x3e, 0xac, 0x75, 0x3e,
	0x2d, 0xa2, 0x34, 0x3e, 0x1b, 0xb5, 0xa8, 0x3e, 0x33, 0x55, 0xb7, 0x3e,
	0x82, 0x93, 0xdc, 0x3d, 0xf9, 0xc5, 0x77, 0x3e, 0x59, 0xfa, 0xec, 0x3d,
	0x9b, 0xd3, 0x12, 0x3e, 0x7b, 0xde, 0x56, 0x3d, 0xf7, 0x70, 0xe4, 0x3d,
	0x3d, 0x65, 0x4f, 0x3e, 0x3c, 0xaf, 0x3f, 0x3e, 0x13, 0x9b, 0x00, 0x3e,
	0xdc, 0xb6, 0x01, 0x3e, 0x80, 0xce, 0x28, 0x3e, 0x79, 0x64, 0x4d, 0x3e,
	0xaa, 0xd4, 0x30, 0x3e, 0x85, 0x7f, 0x03, 0x3e, 0x93, 0x2e, 0x4e, 0x3e,
	0xae, 0x34, 0xee, 0x3d, 0xf6, 0xd0, 0x7a, 0x3e, 0x04, 0x10, 0x5c, 0x3e,
	0xf3, 0xc5, 0xa3, 0x3e, 0x4b, 0x98, 0x11, 0x3d, 0x52, 0x9f, 0x54, 0x3e,
	0xcc, 0x96, 0x12, 0x3e, 0xc7, 0x29, 0xbc, 0x3c, 0x73, 0x47, 0x27, 0xbb,
	0xb3, 0x68, 0xbb, 0x3d, 0x2f, 0x67, 0x52, 0xbd, 0x32, 0xea, 0x1e, 0x3e,
	0xbf, 0x7b, 0x27, 0x3e, 0x22, 0x14, 0x8b, 0x3e, 0x03, 0x0d, 0x31, 0x3e,
	0x44, 0x23, 0xe7, 0x3d, 0x72, 0x08, 0xb9, 0x3d, 0xf8, 0xaa, 0x01, 0x3e,
	0x78, 0x74, 0x6e, 0x3e, 0xa9, 0x14, 0xf2, 0x3d, 0xc6, 0x6e, 0x02, 0x3e,
	0x6e, 0x31, 0x06, 0x3e, 0xb5, 0x48, 0x0b, 0x3e, 0xe1, 0x86, 0x8c, 0x3d,
	0x53, 0xa4, 0x41, 0x3e, 0xf2, 0x15, 0x0c, 0x3e, 0xd3, 0xfe, 0x1a, 0x3d,
	0xb8, 0x0f, 0x1e, 0x3e, 0x0e, 0xdd, 0xc1, 0xbd, 0x60, 0x20, 0x80, 0x3d,
	0xee, 0x85, 0x97, 0x3d, 0xca, 0xc4, 0x42, 0x3e, 0x44, 0x09, 0x25, 0x3d,
	0xcc, 0x02, 0x86, 0x3d, 0xc3, 0x97, 0x44, 0x3e, 0x0f, 0x57, 0xdb, 0x3d,
	0x07, 0x75, 0x1e, 0x3e, 0x4e, 0xa5, 0xdd, 0x3d, 0xac, 0xef, 0xcc, 0x3d,
	0x49, 0x67, 0xe9, 0x3d, 0x88, 0x0a, 0x1f, 0x3e, 0x77, 0x66, 0xde, 0x3c,
	0xa7, 0xcd, 0xa0, 0x3d, 0xa4, 0x0a, 0x3d, 0xbe, 0x09, 0x2f, 0xd6, 0x3c,
	0x8d, 0x4f, 0xa1, 0x3c, 0x57, 0x49, 0x19, 0x3e, 0xbf, 0xe9, 0x81, 0xbd,
	0x45, 0x91, 0x04, 0xbe, 0xbd, 0xea, 0xce, 0x3d, 0x37, 0xe6, 0x83, 0xbd,
	0x24, 0x0d, 0xa8, 0xbc, 0x51, 0x0b, 0xbc, 0x3d, 0x02, 0x65, 0xb6, 0x39,
	0xa5, 0x6c, 0xd6, 0xba, 0xd3, 0x71, 0x9c, 0x3b, 0x41, 0x3b, 0x6a, 0x3b,
	0xc4, 0xe3, 0xb8, 0x3d, 0x0f, 0x82, 0x2b, 0x3e, 0xd8, 0xb2, 0xde, 0x3d,
	0xaf, 0x11, 0xb1, 0xbd, 0xf2, 0x9e, 0xfa, 0x3d, 0x3c, 0xd4, 0x9b, 0xbd,
	0xd7, 0x66, 0x97, 0xbe, 0x61, 0x9c, 0x45, 0x3d, 0x73, 0x12, 0x66, 0xbd,
	0x76, 0xab, 0xbe, 0xbb, 0x2a, 0xc1, 0xa4, 0xbd, 0x8e, 0xc6, 0x26, 0xbe,
	0xf8, 0x3d, 0xec, 0xbd, 0x2d, 0xc1, 0x81, 0xbd, 0xac, 0x5a, 0x5c, 0xbc,
	0x5f, 0xbc, 0xe1, 0x3c, 0xc8, 0xaf, 0x1f, 0x3c, 0x80, 0x33, 0xb6, 0xbd,
	0x5d, 0x70, 0x91, 0x3d, 0xd7, 0x4a, 0x80, 0xbb, 0x07, 0xf9, 0xe1, 0x3b,
	0xf5, 0x1d, 0xf0, 0xbc, 0x13, 0x21, 0xfa, 0xbc, 0x61, 0xd8, 0x54, 0x3d,
	0xe5, 0xd9, 0xf3, 0x3c, 0xfe, 0x50, 0xe0, 0xbd, 0xe1, 0xa8, 0x95, 0xbe,
	0x8a, 0x77, 0x2f, 0x3b, 0x48, 0x6d, 0x3d, 0xbd, 0x97, 0xb7, 0x5c, 0x3d,
	0xa6, 0x29, 0x17, 0xbe, 0x6e, 0x2e, 0x99, 0xbd, 0xec, 0xbc, 0xf2, 0xbc,
	0x23, 0x97, 0xc7, 0xbd, 0x9a, 0x8c, 0x44, 0xbb, 0x05, 0x60, 0x88, 0x3c,
	0x02, 0x7f, 0x20, 0x3d, 0xf5, 0x6a, 0xb2, 0xbc, 0xab, 0x5e, 0x4d, 0x3d,
	0x40, 0x06, 0x96, 0x3d, 0x16, 0xa4, 0x9f, 0xbd, 0xab, 0x29, 0x0d, 0xbe,
	0x94, 0xd5, 0x83, 0x3d, 0x3f, 0x1e, 0xba, 0xbd, 0x9e, 0xe4, 0x25, 0xbe,
	0x0d, 0xfc, 0xf5, 0xbd, 0x30, 0x52, 0xa9, 0xbe, 0x9d, 0xff, 0x5c, 0xbe,
	0x72, 0x1f, 0x96, 0xbd, 0x45, 0x6d, 0xc4, 0xbd, 0x05, 0x3e, 0x0c, 0xbe,
	0xfa, 0xeb, 0x12, 0xbe, 0xe4, 0xbe, 0x31, 0xbe, 0x71, 0xca, 0xb0, 0x3c,
	0xce, 0xd5, 0x0b, 0x3d, 0xea, 0xd9, 0x83, 0xbd, 0x04, 0xd8, 0xab, 0xbd,
	0x85, 0xd8, 0x30, 0xbd, 0x28, 0x06, 0x1d, 0xbd, 0xfb, 0xfa, 0x4f, 0x3d,
	0xe3, 0xc5, 0x11, 0x3d, 0x27, 0x32, 0xf5, 0xbd, 0x82, 0x48, 0xe5, 0xbd,
	0x31, 0x8a, 0x6a, 0xbd, 0xf2, 0x3e, 0x14, 0xbe, 0x7a, 0x5a, 0x62, 0xbe,
	0x1a, 0x5c, 0x96, 0xbe, 0x28, 0xa4, 0xdd, 0xbe, 0x68, 0xd2, 0xdf, 0xbe,
	0x00, 0x23, 0xbe, 0xbe, 0xdb, 0x66, 0xcb, 0xbd, 0xb2, 0xb6, 0x21, 0xbe,
	0x49, 0xed, 0x89, 0xbd, 0x40, 0xd6, 0xf3, 0xbd, 0x60, 0x44, 0xa1, 0xbd,
	0x04, 0x81, 0xb9, 0xbd, 0xe9, 0xf4, 0x13, 0xbe, 0x39, 0xd6, 0xcb, 0xbd,
	0x14, 0x05, 0xe7, 0xbd, 0xe0, 0xdf, 0xc9, 0xbd, 0x65, 0x08, 0x3a, 0xbe,
	0x3e, 0xac, 0x31, 0xbe, 0x46, 0x87, 0xa5, 0xbd, 0x33, 0x25, 0x99, 0xbc,
	0xdb, 0x76, 0x14, 0xbe, 0xf7, 0x5f, 0xbb, 0xbe, 0x24, 0xd2, 0x7e, 0xbe,
	0xa4, 0xc3, 0xc5, 0xbe, 0xe2, 0x00, 0xd8, 0xbe, 0x08, 0xee, 0xcf, 0xbe,
	0x34, 0x1a, 0x69, 0xbe, 0xf7, 0x2b, 0x51, 0xbe, 0xec, 0x03, 0xa9, 0xbe,
	0x87, 0x99, 0xa2, 0xbe, 0x11, 0x0d, 0x13, 0xbe, 0x63, 0xcd, 0x05, 0xbe,
	0xe3, 0xa1, 0xbb, 0xbd, 0x97, 0xc5, 0x13, 0xbe, 0x2d, 0x1c, 0xd8, 0xbd,
	0x07, 0xb8, 0xda, 0xbd, 0xc2, 0x59, 0x87, 0xbd, 0x54, 0xb6, 0x55, 0xbe,
	0x6a, 0x30, 0x0b, 0x3b, 0x44, 0x36, 0x0a, 0xbe, 0x3d, 0x30, 0x44, 0xbe,
	0x45, 0xd7, 0x95, 0xbe, 0xc4, 0x6b, 0xac, 0xbe, 0xd0, 0x92, 0xf0, 0xbe,
	0x0c, 0xf4, 0xc4, 0xbe, 0x96, 0xba, 0xbf, 0xbe, 0x1a, 0xdc, 0xb6, 0xbd,
	0x2b, 0x6f, 0x08, 0xbe, 0xab, 0x31, 0x72, 0xbe, 0x5a, 0x5a, 0xaa, 0xbe,
	0x3f, 0xc3, 0xa3, 0xbe, 0x7d, 0xca, 0xc0, 0xbe, 0x2d, 0xa5, 0xd1, 0xbe,
	0xb8, 0x5f, 0x94, 0xbe, 0xba, 0xc0, 0x5c, 0xbe, 0x50, 0x49, 0x7d, 0xbe,
	0xa7, 0xd4, 0xfe, 0xbd, 0xba, 0x0a, 0x86, 0xbe, 0x04, 0x27, 0x5d, 0xbe,
	0xb4, 0xba, 0x89, 0xbe, 0x2e, 0x84, 0xa0, 0xbe, 0x6f, 0x07, 0xc2, 0xbe,
	0x76, 0x40, 0xaa, 0xbe, 0x94, 0x16, 0x34, 0xbe, 0xf8, 0xc0, 0x5d, 0xbd,
	0xd6, 0x83, 0x2e, 0xbe, 0xe6, 0xc0, 0x41, 0xbe, 0x3a, 0x3c, 0x7a, 0xbe,
	0x77, 0x1f, 0xa9, 0xbe, 0x3e, 0x63, 0x40, 0xbe, 0x40, 0x34, 0x7d, 0xbe,
	0xe0, 0x2a, 0xaa, 0xbe, 0xe1, 0xb8, 0xbd, 0xbe, 0xba, 0x84, 0x14, 0xbe,
	0x79, 0xd8, 0x94, 0xbe, 0xfa, 0x13, 0x84, 0xbe, 0x6e, 0x28, 0x9c, 0xbe,
	0x28, 0x9d, 0x4b, 0xbe, 0x5d, 0x78, 0x9b, 0xbe, 0xa0, 0x30, 0xfe, 0xbd,
	0x3c, 0x92, 0x90, 0xbe, 0x44, 0x16, 0x0b, 0xbe, 0xac, 0x05, 0xac, 0xbd,
	0x66, 0x46, 0x92, 0xbd, 0xc3, 0x13, 0xf8, 0xbd, 0xfd, 0x45, 0x51, 0xbe,
	0xa9, 0xb3, 0x45, 0xbe, 0x2c, 0x17, 0x82, 0xbe, 0x89, 0xa0, 0xbe, 0xbe,
	0x94, 0xd5, 0xb4, 0xbe, 0x4b, 0x3a, 0x7b, 0xbe, 0x0d, 0x86, 0x59, 0xbe,
	0x74, 0x69, 0xa8, 0xbe, 0x53, 0x0d, 0xa2, 0xbe, 0x8d, 0x29, 0xbd, 0xbe,
	0x3c, 0xa6, 0x91, 0xbe, 0xe2, 0x29, 0x04, 0xbe, 0x7f, 0x27, 0x0d, 0xbe,
	0x27, 0x64, 0x0c, 0xbe, 0xc6, 0x0c, 0x3c, 0xbe, 0x49, 0x87, 0x8c, 0xbe,
	0x09, 0xd6, 0xa1, 0xbc, 0x54, 0x7a, 0x98, 0x3d, 0x4d, 0x78, 0x48, 0x3c,
	0x57, 0x54, 0xa3, 0xbc, 0xec, 0xa0, 0xa0, 0xbe, 0xab, 0x73, 0x99, 0xbe,
	0x39, 0x20, 0x58, 0xbe, 0x9f, 0x4b, 0xfc, 0xbd, 0xfa, 0x5d, 0x97, 0xbe,
	0x95, 0x79, 0x4b, 0xbe, 0xdc, 0xab, 0xa9, 0xbe, 0x10, 0x39, 0x65, 0xbe,
