unsigned char g_model[] = {
	0x20, 0x00, 0x00, 0x00, 0x54, 0x46, 0x4c, 0x33, 0x00, 0x00, 0x00, 0x00,
	0x14, 0x00, 0x20, 0x00, 0x1c, 0x00, 0x18, 0x00, 0x14, 0x00, 0x10, 0x00,
	0x0c, 0x00, 0x00, 0x00, 0x08, 0x00, 0x04, 0x00, 0x14, 0x00, 0x00, 0x00,
	0x1c, 0x00, 0x00, 0x00, 0x88, 0x00, 0x00, 0x00, 0xe0, 0x00, 0x00, 0x00,
	0xa0, 0x11, 0x00, 0x00, 0xb0, 0x11, 0x00, 0x00, 0x58, 0x17, 0x00, 0x00,
	0x03, 0x00, 0x00, 0x00, 0x01, 0x00, 0x00, 0x00, 0x04, 0x00, 0x00, 0x00,
	0x72, 0xed, 0xff, 0xff, 0x0c, 0x00, 0x00, 0x00, 0x1c, 0x00, 0x00, 0x00,
	0x38, 0x00, 0x00, 0x00, 0x0f, 0x00, 0x00, 0x00, 0x73, 0x65, 0x72, 0x76,
	0x69, 0x6e, 0x67, 0x5f, 0x64, 0x65, 0x66, 0x61, 0x75, 0x6c, 0x74, 0x00,
	0x01, 0x00, 0x00, 0x00, 0x04, 0x00, 0x00, 0x00, 0x94, 0xff, 0xff, 0xff,
	0x08, 0x00, 0x00, 0x00, 0x04, 0x00, 0x00, 0x00, 0x07, 0x00, 0x00, 0x00,
	0x64, 0x65, 0x6e, 0x73, 0x65, 0x5f, 0x35, 0x00, 0x01, 0x00, 0x00, 0x00,
	0x04, 0x00, 0x00, 0x00, 0x22, 0xee, 0xff, 0xff, 0x04, 0x00, 0x00, 0x00,
	0x0f, 0x00, 0x00, 0x00, 0x66, 0x6c, 0x61, 0x74, 0x74, 0x65, 0x6e, 0x5f,
	0x33, 0x5f, 0x69, 0x6e, 0x70, 0x75, 0x74, 0x00, 0x02, 0x00, 0x00, 0x00,
	0x34, 0x00, 0x00, 0x00, 0x04, 0x00, 0x00, 0x00, 0xdc, 0xff, 0xff, 0xff,
	0x0b, 0x00, 0x00, 0x00, 0x04, 0x00, 0x00, 0x00, 0x13, 0x00, 0x00, 0x00,
	0x43, 0x4f, 0x4e, 0x56, 0x45, 0x52, 0x53, 0x49, 0x4f, 0x4e, 0x5f, 0x4d,
	0x45, 0x54, 0x41, 0x44, 0x41, 0x54, 0x41, 0x00, 0x08, 0x00, 0x0c, 0x00,
	0x08, 0x00, 0x04, 0x00, 0x08, 0x00, 0x00, 0x00, 0x0a, 0x00, 0x00, 0x00,
	0x04, 0x00, 0x00, 0x00, 0x13, 0x00, 0x00, 0x00, 0x6d, 0x69, 0x6e, 0x5f,
	0x72, 0x75, 0x6e, 0x74, 0x69, 0x6d, 0x65, 0x5f, 0x76, 0x65, 0x72, 0x73,
	0x69, 0x6f, 0x6e, 0x00, 0x0c, 0x00, 0x00, 0x00, 0xbc, 0x10, 0x00, 0x00,
	0xb4, 0x10, 0x00, 0x00, 0x9c, 0x10, 0x00, 0x00, 0xec, 0x00, 0x00, 0x00,
	0xb4, 0x00, 0x00, 0x00, 0xac, 0x00, 0x00, 0x00, 0xa4, 0x00, 0x00, 0x00,
	0x9c, 0x00, 0x00, 0x00, 0x94, 0x00, 0x00, 0x00, 0x8c, 0x00, 0x00, 0x00,
	0x6c, 0x00, 0x00, 0x00, 0x04, 0x00, 0x00, 0x00, 0xce, 0xee, 0xff, 0xff,
	0x04, 0x00, 0x00, 0x00, 0x58, 0x00, 0x00, 0x00, 0x0c, 0x00, 0x00, 0x00,
	0x08, 0x00, 0x0e, 0x00, 0x08, 0x00, 0x04, 0x00, 0x08, 0x00, 0x00, 0x00,
	0x10, 0x00, 0x00, 0x00, 0x28, 0x00, 0x00, 0x00, 0x00, 0x00, 0x06, 0x00,
	0x08, 0x00, 0x04, 0x00, 0x06, 0x00, 0x00, 0x00, 0x04, 0x00, 0x00, 0x00,
	0x01, 0x00, 0x00, 0x00, 0xeb, 0x03, 0x00, 0x00, 0x00, 0x00, 0x0a, 0x00,
	0x10, 0x00, 0x0c, 0x00, 0x08, 0x00, 0x04, 0x00, 0x0a, 0x00, 0x00, 0x00,
	0x01, 0x00, 0x00, 0x00, 0x02, 0x00, 0x00, 0x00, 0x04, 0x00, 0x00, 0x00,
	0x05, 0x00, 0x00, 0x00, 0x32, 0x2e, 0x39, 0x2e, 0x31, 0x00, 0x00, 0x00,
	0x32, 0xef, 0xff, 0xff, 0x04, 0x00, 0x00, 0x00, 0x10, 0x00, 0x00, 0x00,
	0x31, 0x2e, 0x31, 0x34, 0x2e, 0x30, 0x00, 0x00, 0x00, 0x00, 0x00, 0x00,
	0x00, 0x00, 0x00, 0x00, 0x74, 0xea, 0xff, 0xff, 0x78, 0xea, 0xff, 0xff,
	0x7c, 0xea, 0xff, 0xff, 0x80, 0xea, 0xff, 0xff, 0x84, 0xea, 0xff, 0xff,
	0x62, 0xef, 0xff, 0xff, 0x04, 0x00, 0x00, 0x00, 0x28, 0x00, 0x00, 0x00,
	0x1a, 0x9f, 0xff, 0xff, 0xc1, 0x8a, 0x00, 0x00, 0xeb, 0xf0, 0xff, 0xff,
	0x1b, 0xeb, 0xff, 0xff, 0xcc, 0x47, 0x00, 0x00, 0x38, 0x3a, 0x00, 0x00,
	0xa1, 0xd0, 0xff, 0xff, 0xac, 0x4c, 0x00, 0x00, 0x09, 0x83, 0xff, 0xff,
	0xef, 0xd6, 0xff, 0xff, 0x96, 0xef, 0xff, 0xff, 0x04, 0x00, 0x00, 0x00,
	0xa0, 0x0f, 0x00, 0x00, 0xa2, 0xd9, 0xe2, 0xda, 0x04, 0xf0, 0x02, 0x0e,
	0x07, 0x0b, 0xf7, 0xee, 0xf0, 0x03, 0x02, 0xfc, 0xfd, 0xec, 0xe1, 0xd5,
	0xbf, 0xd6, 0xdc, 0xed, 0xef, 0xe6, 0xf8, 0xee, 0x07, 0xe8, 0xec, 0x05,
	0xe3, 0xed, 0xef, 0xe6, 0xfb, 0xee, 0xeb, 0xe8, 0xdd, 0xf3, 0xf0, 0xec,
	0xf2, 0xec, 0xf9, 0xf9, 0x11, 0x10, 0xf6, 0x10, 0x14, 0x10, 0x09, 0x12,
	0x0e, 0x05, 0xe3, 0xde, 0xf6, 0x01, 0xf3, 0x03, 0x0a, 0xf5, 0xf1, 0x0e,
	0xfc, 0x11, 0x1f, 0x1d, 0x11, 0x15, 0x15, 0xfb, 0xff, 0xff, 0x05, 0x00,
	0x07, 0xf4, 0xe5, 0xf6, 0xff, 0x07, 0xf7, 0xff, 0x02, 0x0d, 0x13, 0x1f,
	0x1f, 0x19, 0x11, 0x19, 0xfb, 0x18, 0x21, 0x10, 0xe9, 0xea, 0x00, 0x00,
	0xf5, 0xfc, 0x04, 0x01, 0xfb, 0xf0, 0x0d, 0x18, 0x17, 0x1b, 0x09, 0x07,
	0x0c, 0x14, 0x1a, 0x2f, 0xe2, 0xfa, 0x03, 0xee, 0xf1, 0xef, 0xfd, 0xff,
	0xf7, 0xfe, 0x0c, 0x10, 0xfe, 0x03, 0xfe, 0x0f, 0x0e, 0x0b, 0x21, 0x28,
	0xf8, 0xeb, 0xf8, 0x05, 0xef, 0x07, 0xe2, 0xf6, 0xf2, 0xe2, 0xf9, 0xf1,
	0xf6, 0xfa, 0x02, 0xf1, 0xfd, 0x04, 0x34, 0x30, 0x0f, 0x15, 0x04, 0xf9,
	0xf9, 0xfb, 0xf2, 0xfd, 0xf6, 0xcf, 0xef, 0xf6, 0xf3, 0xee, 0xe6, 0xed,
	0xf2, 0x1a, 0x12, 0x28, 0x14, 0x12, 0x1a, 0x0f, 0xff, 0xf1, 0xfa, 0xed,
	0xda, 0xc6, 0xdf, 0xe1, 0xd9, 0xf2, 0xf0, 0xfe, 0x14, 0xfc, 0x1a, 0x22,
	0x2a, 0x10, 0x18, 0x0b, 0x0d, 0x12, 0xf9, 0xe8, 0xdc, 0xbc, 0xd0, 0xde,
	0xe7, 0x04, 0x05, 0x00, 0x05, 0x0e, 0x16, 0x0e, 0x17, 0x24, 0x15, 0x14,
	0x0c, 0x05, 0xf4, 0xe4, 0xc9, 0xcf, 0xef, 0xd6, 0xf7, 0xe8, 0x0f, 0x09,
	0x15, 0x16, 0x29, 0x1e, 0x15, 0x1f, 0x1f, 0x09, 0x15, 0x04, 0xee, 0xc1,
	0xc6, 0xc8, 0xec, 0xfd, 0x06, 0x01, 0xf8, 0x0e, 0xfc, 0xf7, 0x01, 0x0b,
	0x13, 0x05, 0x0f, 0x1a, 0x10, 0x04, 0xe3, 0xd8, 0xe0, 0xe0, 0xf5, 0xf0,
	0x02, 0x09, 0x07, 0x06, 0xf9, 0x05, 0x14, 0x11, 0x06, 0x11, 0x1b, 0xf9,
	0xf5, 0xe1, 0xd4, 0xed, 0xed, 0xed, 0x07, 0x06, 0x08, 0x15, 0xf6, 0xfd,
	0xed, 0x11, 0x11, 0x0c, 0xf9, 0x19, 0x00, 0xf3, 0xeb, 0xf4, 0xfc, 0x01,
	0xfc, 0x0a, 0x04, 0xf7, 0x02, 0x0b, 0xf4, 0x01, 0xf5, 0x07, 0x19, 0x02,
	0xfe, 0xf6, 0x06, 0x05, 0xfb, 0x13, 0x2a, 0x2c, 0x1f, 0x12, 0x10, 0x04,
	0xf0, 0x01, 0x00, 0xf2, 0xf4, 0x09, 0x0d, 0x09, 0x08, 0x12, 0xf7, 0x07,
	0x0b, 0x1e, 0x0d, 0x1f, 0x08, 0x1e, 0x0f, 0x02, 0x06, 0x01, 0xe4, 0xfc,
	0x0b, 0xf8, 0xf4, 0xe2, 0xe6, 0xf8, 0x07, 0x09, 0x16, 0x16, 0x15, 0x0a,
	0x10, 0x13, 0x17, 0x07, 0xfb, 0xfc, 0xfc, 0xf3, 0xf5, 0xf4, 0xe5, 0xbf,
	0xaf, 0xf4, 0x10, 0x20, 0x25, 0x1d, 0x17, 0xf4, 0xf5, 0x0f, 0x01, 0x18,
	0x12, 0x0d, 0xea, 0xfa, 0xd6, 0xca, 0xba, 0xc6, 0x37, 0x26, 0x1b, 0xf3,
	0xc8, 0xd2, 0xe5, 0xfa, 0xfc, 0xf5, 0xf0, 0xf3, 0x04, 0xf2, 0xe8, 0xed,
	0x09, 0x15, 0xe0, 0xcd, 0x11, 0xfc, 0xee, 0xd9, 0xcf, 0xa4, 0xb2, 0xb6,
	0xb2, 0xca, 0xd1, 0xda, 0xcb, 0xcc, 0xc6, 0xda, 0xee, 0xc8, 0xc4, 0xdf,
	0xfd, 0xff, 0x07, 0xe2, 0xef, 0xdc, 0xd6, 0xe6, 0xca, 0xde, 0xdf, 0xd8,
	0xe4, 0xf2, 0xd2, 0xe5, 0xe7, 0xe6, 0xdc, 0xee, 0xef, 0xfa, 0x0e, 0x18,
	0x22, 0xfa, 0xeb, 0xe7, 0xd3, 0xed, 0xdf, 0xeb, 0xe9, 0xf9, 0xf8, 0x05,
	0xf2, 0x00, 0xf3, 0xdc, 0xf7, 0xfa, 0x0f, 0x26, 0x1d, 0x17, 0x18, 0x08,
	0xe9, 0x00, 0xe7, 0xfb, 0xf6, 0xee, 0xfc, 0xfd, 0xfb, 0xf9, 0xf1, 0xb6,
	0xf7, 0xf4, 0xf5, 0x18, 0x12, 0x1e, 0x10, 0x17, 0x11, 0x1b, 0xe3, 0xfc,
	0x0a, 0xf1, 0xfa, 0xf9, 0xf5, 0xf2, 0xe4, 0xc3, 0xf1, 0xf1, 0xf5, 0x0f,
	0x05, 0x0a, 0x1b, 0x0f, 0x13, 0x10, 0xf3, 0x07, 0xfd, 0xf9, 0xe1, 0x00,
	0x02, 0xdb, 0xd9, 0xae, 0xdd, 0xf4, 0xfc, 0x06, 0x0a, 0x11, 0x0f, 0x12,
	0x19, 0x21, 0x00, 0x12, 0x11, 0xe7, 0x04, 0x13, 0xfd, 0xde, 0xd2, 0xc4,
	0x08, 0xe7, 0xfa, 0x04, 0x05, 0x0f, 0x14, 0x01, 0x21, 0x14, 0x01, 0xff,
	0x19, 0x0e, 0x0b, 0x09, 0xe3, 0xcf, 0xc0, 0xa7, 0x00, 0x03, 0x06, 0x13,
	0xf7, 0x03, 0xf5, 0x07, 0x07, 0x11, 0x08, 0xfb, 0x0f, 0x09, 0xf4, 0x08,
	0xdc, 0xc6, 0xbe, 0xb3, 0x0c, 0xfb, 0x04, 0x00, 0x0d, 0x05, 0x08, 0xee,
	0x14, 0x16, 0xf9, 0x1b, 0x1a, 0xfc, 0x00, 0xdb, 0xcb, 0xe3, 0xc5, 0xd3,
	0x0b, 0x08, 0x03, 0x18, 0x0a, 0xf7, 0xdf, 0xe9, 0x0d, 0x05, 0x02, 0x0a,
	0x06, 0xe9, 0xf8, 0xee, 0xdb, 0xc1, 0xb6, 0xa8, 0x18, 0x1b, 0x14, 0x28,
	0x1b, 0x05, 0xff, 0xfe, 0x03, 0x18, 0x0e, 0x00, 0xf6, 0xd4, 0xe9, 0xcc,
	0xcf, 0xb5, 0x9f, 0xa8, 0x0c, 0x1c, 0x15, 0x1e, 0x1b, 0x1b, 0xf2, 0x0a,
	0x06, 0x07, 0xfc, 0xf3, 0xe9, 0xd3, 0xd0, 0xb9, 0xbe, 0xb7, 0xab, 0xb7,
	0x07, 0x08, 0x0d, 0x1f, 0x12, 0x25, 0x0d, 0x02, 0x0f, 0x01, 0xd8, 0xf3,
	0xdd, 0xd2, 0xc8, 0xe3, 0xd5, 0xc4, 0xb6, 0xbd, 0xe4, 0xe7, 0x20, 0x1f,
	0x17, 0x27, 0x24, 0xe9, 0xf6, 0xf5, 0xe2, 0xf3, 0xea, 0xd7, 0xe8, 0xed,
	0xeb, 0xd5, 0xe5, 0xea, 0xe5, 0xfa, 0x16, 0x1f, 0x21, 0x09, 0x09, 0xe7,
	0xf9, 0xf4, 0x06, 0x0a, 0x03, 0xf5, 0x1d, 0x26, 0x28, 0xfc, 0x02, 0xf2,
	0x11, 0x15, 0x27, 0x31, 0x1c, 0x09, 0xf8, 0xf8, 0x15, 0x02, 0x11, 0x21,
	0x0a, 0x24, 0x10, 0x21, 0x28, 0x24, 0x0a, 0xf9, 0x3d, 0x41, 0x3d, 0x13,
	0xde, 0xf7, 0xf8, 0xf9, 0x04, 0x1e, 0x21, 0x27, 0x19, 0x28, 0x0a, 0x16,
	0x0f, 0x15, 0x15, 0x1e, 0x66, 0x39, 0x21, 0x18, 0xf3, 0xfc, 0xe8, 0x0c,
	0x10, 0x14, 0x19, 0x1a, 0x17, 0x0f, 0xfe, 0x07, 0x05, 0x0a, 0x1b, 0x27,
	0x08, 0x1a, 0x0c, 0x15, 0x07, 0x0b, 0x18, 0x0b, 0x1e, 0x12, 0x01, 0xf6,
	0xf6, 0xfa, 0x0d, 0x05, 0x01, 0xe6, 0xc3, 0xab, 0x17, 0x16, 0x0d, 0x0f,
	0x14, 0x15, 0x05, 0x0a, 0x06, 0xfe, 0x01, 0x06, 0x07, 0x00, 0x0c, 0x16,
	0xea, 0xde, 0xe3, 0xc4, 0x00, 0x09, 0x06, 0x16, 0x24, 0x12, 0x22, 0x20,
	0xfa, 0x0a, 0x0d, 0x12, 0x02, 0x01, 0xed, 0xe9, 0xdd, 0xe9, 0xf1, 0xe7,
	0x0a, 0x06, 0xfa, 0xff, 0x06, 0x0e, 0x10, 0x1c, 0xfd, 0x07, 0xf5, 0x03,
	0xfe, 0xee, 0xf9, 0xe3, 0xe0, 0xeb, 0x04, 0x00, 0xeb, 0xec, 0xed, 0xf3,
	0x06, 0x04, 0xfd, 0x04, 0x08, 0x10, 0x11, 0xf6, 0xf6, 0xf8, 0x06, 0xf3,
	0xf4, 0xf8, 0x04, 0xfa, 0xe5, 0xd5, 0xda, 0xd5, 0xec, 0xee, 0xf9, 0xee,
	0xea, 0xed, 0x05, 0xfd, 0xf7, 0x01, 0x10, 0xfa, 0x08, 0x19, 0x07, 0xec,
	0xe1, 0xe3, 0xcf, 0xcc, 0xe1, 0xe0, 0xd8, 0xd7, 0xd7, 0xd4, 0xeb, 0xe7,
	0xf8, 0xff, 0xfc, 0x03, 0xfb, 0x02, 0x0a, 0xfa, 0xd7, 0xdb, 0xc4, 0xc1,
	0xc7, 0xd1, 0xc1, 0xc0, 0xbc, 0xb2, 0xc9, 0xd7, 0xe4, 0xdd, 0xe3, 0x02,
	0xf6, 0x09, 0xf9, 0xfe, 0xa8, 0xc2, 0xb6, 0xba, 0xc0, 0xc3, 0xd6, 0xcf,
	0xd1, 0xc8, 0xdd, 0xc1, 0xc3, 0xf3, 0xf3, 0xeb, 0xe3, 0xe5, 0x05, 0x10,
	0xa5, 0xbb, 0xb4, 0xc3, 0xcb, 0xd1, 0xe2, 0xe9, 0xe6, 0xf6, 0xf4, 0xe9,
	0xd7, 0xe1, 0xd9, 0xd9, 0xe5, 0xee, 0xf4, 0x15, 0x93, 0xb2, 0xde, 0xe0,
	0xf7, 0x05, 0xf6, 0xf2, 0x03, 0xfc, 0x01, 0xf1, 0xf6, 0xf0, 0xf3, 0xef,
	0xf4, 0xfe, 0xed, 0x09, 0xe1, 0xef, 0x0c, 0xf3, 0x0f, 0x09, 0xfa, 0x01,
	0x0a, 0x06, 0x18, 0x02, 0xfc, 0xff, 0x0f, 0x08, 0x01, 0xf2, 0xe5, 0xeb,
	0xff, 0x08, 0x0d, 0x0d, 0x1a, 0x08, 0x0f, 0x1d, 0x13, 0x1b, 0x03, 0xf9,
	0x00, 0xfe, 0x12, 0x02, 0xf3, 0xed, 0xda, 0x0a, 0x11, 0x15, 0x05, 0x0d,
	0x15, 0x08, 0x25, 0x18, 0x19, 0x04, 0x19, 0xff, 0x19, 0x11, 0x05, 0x0a,
	0x0a, 0x01, 0xe6, 0x06, 0x22, 0x29, 0x13, 0x0a, 0xfb, 0x0e, 0x11, 0x2b,
	0x27, 0x1e, 0x14, 0x11, 0x0f, 0x21, 0x07, 0x0c, 0x00, 0x00, 0xf6, 0x0f,
	0x17, 0x12, 0x1a, 0x18, 0x04, 0x0c, 0x1a, 0x21, 0x14, 0x07, 0x18, 0x28,
	0x1e, 0x1f, 0x1c, 0x23, 0x18, 0x15, 0x22, 0x23, 0x13, 0x31, 0x13, 0x13,
	0x20, 0x1b, 0x21, 0x23, 0x14, 0x1a, 0x18, 0x29, 0x12, 0x24, 0x24, 0x15,
	0x0b, 0x2e, 0x22, 0x28, 0x19, 0x2e, 0x1d, 0x0f, 0x17, 0x1d, 0x22, 0x12,
	0x18, 0x16, 0x26, 0x14, 0x2b, 0x39, 0x29, 0x28, 0x31, 0x20, 0x36, 0x3b,
	0x0b, 0x07, 0x21, 0x16, 0x22, 0x01, 0x1a, 0x09, 0xfe, 0xf0, 0xf4, 0x0a,
	0x0b, 0x23, 0x25, 0x2a, 0x32, 0x2c, 0x36, 0x3e, 0xf6, 0x0b, 0x25, 0x01,
	0x22, 0xfd, 0x03, 0x06, 0xf5, 0x05, 0xf0, 0xf6, 0xe1, 0xf1, 0x0f, 0x0e,
	0x0a, 0x26, 0x35, 0x47, 0x1b, 0x1a, 0x1a, 0x0c, 0x27, 0x10, 0x1c, 0xff,
	0x08, 0x19, 0xfa, 0x01, 0x11, 0x10, 0x08, 0xf9, 0x14, 0x13, 0xdd, 0xbe,
	0xfd, 0xfc, 0x0c, 0x13, 0x26, 0x2e, 0x24, 0x15, 0x0e, 0x11, 0xff, 0x0c,
	0x0f, 0xf7, 0x11, 0xfd, 0xff, 0x02, 0xfc, 0xe7, 0x09, 0xfa, 0x01, 0x13,
	0x19, 0x1c, 0x2d, 0x19, 0x21, 0x13, 0x10, 0x03, 0x00, 0x1c, 0x10, 0x0b,
	0xfd, 0x0d, 0x00, 0xff, 0xf1, 0xdf, 0xfc, 0xf2, 0x0f, 0x20, 0x1a, 0x23,
	0x0b, 0x0a, 0x08, 0x0c, 0x10, 0x03, 0x04, 0xff, 0xf7, 0x0e, 0x1e, 0x0c,
	0xfe, 0xe4, 0xee, 0xdf, 0xe9, 0xe7, 0xe0, 0xf4, 0x0a, 0x1c, 0x13, 0x14,
	0x10, 0xf7, 0xfe, 0x01, 0x0c, 0x06, 0x16, 0x13, 0xea, 0xb7, 0xc5, 0xd0,
	0xc6, 0xc0, 0xd7, 0xf5, 0xec, 0xff, 0x15, 0x13, 0xff, 0xff, 0x0f, 0xff,
	0x1d, 0x19, 0x25, 0x1d, 0xaa, 0xb3, 0xa1, 0xc9, 0xec, 0xec, 0xd7, 0xf8,
	0x0b, 0x03, 0xfa, 0x08, 0x08, 0x0a, 0x0c, 0x17, 0x0b, 0x14, 0xf7, 0x06,
	0xb7, 0xcf, 0xbf, 0xfa, 0xfd, 0xf3, 0x04, 0xfc, 0xfe, 0x07, 0xf7, 0x0d,
	0xfe, 0x04, 0xf8, 0x04, 0x01, 0x08, 0xd2, 0xd3, 0xe5, 0xe2, 0xee, 0x0b,
	0x0c, 0x00, 0xff, 0x07, 0xfb, 0x02, 0x15, 0x19, 0x06, 0x07, 0xf9, 0x0e,
	0xfd, 0xfe, 0xd2, 0xcd, 0x06, 0x04, 0xf1, 0xf4, 0xf6, 0x01, 0xec, 0xfb,
	0xf8, 0x14, 0x07, 0x01, 0x19, 0x00, 0x0f, 0x04, 0x0a, 0x03, 0xdb, 0xcc,
	0x25, 0x04, 0xe6, 0xe4, 0x01, 0xfc, 0x07, 0x04, 0xfa, 0x20, 0x0b, 0x06,
	0xf7, 0x00, 0xfc, 0xf5, 0xf6, 0x03, 0xf2, 0xf7, 0xe9, 0xea, 0xcc, 0xf1,
	0xe4, 0xf6, 0xfc, 0x0d, 0x08, 0x07, 0x07, 0xf7, 0xfd, 0x04, 0x02, 0x08,
	0xff, 0x11, 0x15, 0x0e, 0xc9, 0xda, 0xd4, 0xd8, 0xcd, 0xd7, 0xdb, 0xef,
	0x09, 0xfc, 0xfb, 0xeb, 0xec, 0x0c, 0x04, 0x0d, 0xfd, 0x19, 0x07, 0x19,
	0xf1, 0xdf, 0xe6, 0xbf, 0xce, 0xb4, 0xb8, 0xc4, 0xcd, 0xd8, 0xf4, 0xfb,
	0xe9, 0x0a, 0xfb, 0x13, 0x1e, 0x27, 0x25, 0x07, 0xe2, 0xd3, 0xe0, 0xd8,
	0xc8, 0xd2, 0xc1, 0xc2, 0xc9, 0xcd, 0x03, 0xe8, 0x10, 0x14, 0x17, 0x18,
	0x22, 0x0f, 0x19, 0x06, 0xfe, 0xf0, 0xdd, 0xdb, 0xf5, 0xed, 0xea, 0xf5,
	0xfa, 0x00, 0xfa, 0x13, 0x0b, 0x07, 0x08, 0x0c, 0x00, 0x09, 0x26, 0x29,
	0x13, 0xe8, 0xf6, 0x00, 0x05, 0x02, 0x0e, 0x2a, 0x18, 0x09, 0xf5, 0x0f,
	0x17, 0xfb, 0x14, 0x1d, 0xfc, 0x12, 0x13, 0x13, 0x08, 0xf2, 0x01, 0x06,
	0x1c, 0x1f, 0x07, 0x06, 0x0d, 0x0b, 0xf5, 0x0b, 0xfd, 0xf6, 0x0d, 0x04,
	0xf6, 0x04, 0x05, 0xfb, 0x06, 0xf3, 0x0c, 0x1e, 0x25, 0x12, 0x14, 0xff,
	0x04, 0x07, 0xfe, 0x1f, 0xfb, 0x00, 0xfe, 0xfe, 0xf8, 0x0d, 0xdb, 0xc5,
	0x20, 0xef, 0xfc, 0x32, 0x1a, 0x25, 0x11, 0x09, 0x12, 0x22, 0x04, 0x0b,
	0x0f, 0x19, 0x16, 0x07, 0xef, 0xe1, 0xd4, 0xb3, 0xab, 0xc9, 0xc8, 0xc7,
	0xe3, 0xd8, 0xd6, 0xc2, 0xe9, 0xd5, 0xd9, 0xeb, 0xef, 0xf2, 0xd1, 0xd2,
	0xdb, 0xb9, 0xfb, 0x10, 0xd1, 0xdb, 0xd2, 0xd3, 0xc1, 0xd9, 0xc8, 0xb5,
	0xba, 0xc9, 0xc0, 0xc9, 0xb2, 0xc2, 0xba, 0xc4, 0xe0, 0xe7, 0xe9, 0xef,
	0xcd, 0xe8, 0xd3, 0xc8, 0xd1, 0xd4, 0xc5, 0xca, 0xd7, 0xd4, 0xc7, 0xd5,
	0xd8, 0xd8, 0xd1, 0xe9, 0xfb, 0xf4, 0xe8, 0xde, 0xf8, 0xf1, 0x04, 0xf6,
	0xeb, 0xdf, 0xdc, 0xd2, 0xda, 0xd9, 0xdb, 0xe4, 0xf3, 0xfc, 0xdb, 0x00,
	0x0f, 0x04, 0xed, 0xed, 0xf7, 0x0c, 0x0e, 0x05, 0xf3, 0xfa, 0x00, 0xff,
	0xe0, 0xc5, 0xea, 0x00, 0xf7, 0xf5, 0x0e, 0x14, 0x0c, 0x07, 0xe5, 0x01,
	0x1e, 0x11, 0x21, 0x19, 0x17, 0x04, 0xfe, 0xec, 0xea, 0xf8, 0x0a, 0x02,
	0x23, 0x01, 0x06, 0x06, 0x07, 0x03, 0xea, 0xf5, 0x0e, 0x2c, 0x35, 0x2c,
	0x35, 0x2b, 0x29, 0x26, 0x19, 0x0e, 0x19, 0x27, 0x15, 0x1b, 0x18, 0x12,
	0x1a, 0x08, 0x03, 0x0f, 0x2d, 0x30, 0x39, 0x42, 0x41, 0x51, 0x38, 0x3a,
	0x35, 0x2b, 0x14, 0x12, 0x1d, 0x1f, 0x13, 0x17, 0x1b, 0xfb, 0x08, 0x2d,
	0x25, 0x2c, 0x32, 0x32, 0x38, 0x35, 0x3b, 0x2f, 0x1e, 0x17, 0x28, 0x26,
	0x0e, 0x06, 0x1a, 0x1c, 0x18, 0x0f, 0x0e, 0x11, 0x1e, 0x34, 0x1c, 0x1a,
	0x3b, 0x3e, 0x27, 0x1e, 0x15, 0x1b, 0x25, 0x1e, 0x16, 0x27, 0x26, 0x01,
	0x16, 0x01, 0x1a, 0x09, 0x13, 0x12, 0x22, 0x22, 0x24, 0x0b, 0x05, 0x18,
	0x02, 0x1b, 0x0e, 0x2a, 0x18, 0x23, 0x0b, 0x07, 0x17, 0x08, 0xfc, 0xfe,
	0xf7, 0xfa, 0x19, 0x08, 0x10, 0x08, 0x14, 0x0c, 0x1f, 0x14, 0x18, 0x0c,
	0x21, 0x14, 0x19, 0x09, 0x24, 0xfa, 0xf9, 0xf9, 0xfa, 0x0b, 0x14, 0x06,
	0x0d, 0x07, 0x0d, 0x0f, 0x20, 0x1e, 0x0f, 0x19, 0x21, 0x12, 0x14, 0x11,
	0x11, 0x11, 0xfb, 0xe5, 0xf2, 0x02, 0x08, 0x02, 0xf2, 0x10, 0x11, 0x16,
	0x0d, 0x0c, 0x0a, 0x14, 0x0f, 0x09, 0x0a, 0xff, 0xf8, 0x03, 0xf5, 0x11,
	0x19, 0x17, 0xf6, 0x01, 0xff, 0x06, 0x04, 0x22, 0x16, 0x0a, 0x19, 0x15,
	0x0d, 0x0d, 0x0b, 0xfe, 0x13, 0xfd, 0x0c, 0xf4, 0xf2, 0xf5, 0xf6, 0x00,
	0x0d, 0xfd, 0x08, 0xf8, 0x08, 0x1e, 0x12, 0x08, 0x00, 0x0e, 0x0b, 0xfc,
	0xf9, 0xe4, 0xea, 0xe1, 0xda, 0xe6, 0xf0, 0x0b, 0xe2, 0xf8, 0xf1, 0xdd,
	0xef, 0xe3, 0xec, 0xf5, 0xf8, 0xea, 0xf5, 0xdf, 0xfb, 0xd9, 0xcc, 0xc7,
	0xc6, 0xd6, 0xcc, 0xe3, 0xd4, 0xd2, 0xb7, 0xc3, 0xd1, 0xc8, 0xd6, 0xcb,
	0xd9, 0xdd, 0xd7, 0xe3, 0xd0, 0xdc, 0xca, 0xdb, 0xbd, 0xcb, 0xbe, 0xd7,
	0xb6, 0xae, 0xa7, 0xc0, 0xac, 0xcb, 0xc7, 0xc7, 0xdb, 0xbc, 0xc9, 0xd7,
	0xf3, 0xe5, 0xf0, 0xdc, 0xdc, 0xcc, 0xc9, 0xcd, 0xd9, 0xd0, 0xcf, 0xe2,
	0xdd, 0xe1, 0xce, 0xe2, 0xef, 0x0a, 0xf9, 0x06, 0x05, 0x0d, 0xf9, 0xf3,
	0xcc, 0xf8, 0xf7, 0xfd, 0xe7, 0xff, 0xe3, 0xe8, 0xeb, 0xfe, 0x13, 0x0c,
	0x01, 0x0b, 0x01, 0x03, 0xf5, 0x18, 0x53, 0x7a, 0xdd, 0xf7, 0xea, 0x0b,
	0xfe, 0xfe, 0xfb, 0x05, 0x0a, 0x0b, 0x0c, 0x08, 0x03, 0x10, 0x15, 0x1f,
	0x2c, 0x2f, 0x33, 0x32, 0xea, 0x0b, 0x0a, 0xfa, 0xf8, 0xfb, 0x09, 0x0e,
	0x14, 0xff, 0x22, 0x1e, 0x11, 0x13, 0x2f, 0x24, 0x30, 0x28, 0x29, 0x28,
	0xee, 0x06, 0x20, 0x07, 0xf9, 0x03, 0x01, 0xf2, 0xf5, 0xf7, 0x0d, 0xf9,
	0x14, 0x1f, 0x23, 0x1e, 0x10, 0xf5, 0xf4, 0x2f, 0xde, 0x05, 0x04, 0x0b,
	0xfa, 0x12, 0x0b, 0xe5, 0x08, 0xfc, 0xe9, 0xf6, 0xed, 0xfd, 0xf8, 0xec,
	0xf8, 0xf9, 0xf5, 0x28, 0xe8, 0x14, 0x0e, 0x0d, 0x1a, 0x0e, 0x1c, 0x0e,
	0x10, 0xf5, 0xf7, 0xe3, 0xb2, 0xca, 0xc9, 0xaf, 0xcc, 0xc0, 0xa8, 0xd6,
	0xf9, 0xfe, 0x13, 0x1a, 0x09, 0x03, 0x24, 0x03, 0x1b, 0x03, 0xf5, 0xdc,
	0xdb, 0xd8, 0xcc, 0xbc, 0xb1, 0x8b, 0x8c, 0x81, 0xe9, 0x0f, 0x12, 0x02,
	0x04, 0x10, 0x12, 0xfb, 0x0e, 0xfa, 0xea, 0xe3, 0xf2, 0xf3, 0xf1, 0xe1,
	0xe0, 0xc7, 0xa8, 0x91, 0xf2, 0x02, 0x08, 0x00, 0x15, 0x02, 0x0b, 0x07,
	0xfc, 0xf7, 0xf9, 0xf1, 0xcf, 0xe6, 0xdc, 0xf0, 0x0a, 0xeb, 0xdb, 0xd6,
	0x0b, 0x00, 0x0b, 0x01, 0x13, 0x10, 0x00, 0x0a, 0xfe, 0xfa, 0xf9, 0xdb,
	0xdf, 0xf0, 0xf1, 0xeb, 0xff, 0xfd, 0xeb, 0xfa, 0x13, 0xfc, 0x02, 0x02,
	0xfd, 0xfb, 0xfe, 0xf6, 0xea, 0xed, 0xf8, 0xe3, 0xf2, 0xf0, 0xee, 0xf6,
	0xea, 0xfb, 0x0e, 0x03, 0xea, 0xed, 0xf3, 0xe4, 0x16, 0x08, 0x02, 0xf7,
	0xf8, 0xe4, 0xf6, 0x01, 0xe5, 0xea, 0x08, 0xfa, 0x07, 0x0b, 0x12, 0x13,
	0xc1, 0xd9, 0xcf, 0xd0, 0xe7, 0xeb, 0xfb, 0xf4, 0xed, 0xf7, 0xf2, 0xf0,
	0xeb, 0x0a, 0xf4, 0xfe, 0x19, 0x0e, 0x2a, 0x0c, 0xbe, 0xc8, 0xc2, 0xc2,
	0xd8, 0xd1, 0xcc, 0xd8, 0xe1, 0xe4, 0xf3, 0xf9, 0x09, 0x10, 0xf5, 0x0e,
	0x16, 0x07, 0x18, 0x0d, 0xeb, 0xee, 0xc6, 0xbc, 0xca, 0xba, 0xb5, 0xd8,
	0xe1, 0xea, 0xfe, 0x14, 0x04, 0xfc, 0x14, 0xf5, 0x07, 0x1b, 0x0a, 0x0a,
	0x2f, 0xfa, 0xd7, 0xe6, 0xed, 0xe5, 0xfa, 0xe6, 0xf7, 0xf4, 0x12, 0x05,
	0xfc, 0x0c, 0x02, 0xfb, 0xfb, 0x14, 0x20, 0x11, 0x26, 0x14, 0xf2, 0x08,
	0x15, 0x26, 0x39, 0x1e, 0x1b, 0x10, 0x09, 0x0a, 0x0b, 0x14, 0xfb, 0x0f,
	0xf1, 0x0f, 0x02, 0x03, 0x19, 0x0a, 0x12, 0x1c, 0x1d, 0x21, 0x18, 0x1a,
	0x13, 0x0f, 0x15, 0x19, 0xff, 0x04, 0x02, 0xf8, 0xed, 0x02, 0xff, 0x06,
	0xf0, 0x1a, 0x0c, 0x23, 0x19, 0x1f, 0x07, 0x0c, 0x08, 0x06, 0x23, 0x0b,
	0xfa, 0x12, 0xf4, 0x0b, 0xef, 0xfe, 0xf3, 0xe3, 0x03, 0xed, 0x0f, 0x05,
	0x00, 0x0f, 0x21, 0x1a, 0x1c, 0x09, 0x26, 0x23, 0x12, 0x26, 0x18, 0x0d,
	0x0f, 0xfd, 0x12, 0xf7, 0x9d, 0xb6, 0xc2, 0xbb, 0xc7, 0xcd, 0xbf, 0xd0,
	0xe3, 0xd6, 0xe3, 0xe9, 0xee, 0xec, 0xe5, 0x0c, 0x08, 0x09, 0xeb, 0xe3,
	0xa7, 0xc3, 0xbd, 0xb2, 0xc6, 0xab, 0xd2, 0xd9, 0xc3, 0xe1, 0xd5, 0xe8,
	0xe2, 0xdf, 0xec, 0xfe, 0xf0, 0xff, 0xe0, 0x0d, 0xca, 0xcf, 0xc8, 0xd0,
	0xdf, 0xbf, 0xcf, 0xe3, 0xd8, 0xcd, 0xe0, 0xcd, 0xf0, 0xde, 0xe3, 0xe9,
	0x04, 0xd8, 0xea, 0xce, 0xd8, 0xdd, 0xc5, 0xd5, 0xcc, 0xda, 0xca, 0xea,
	0xd7, 0xe9, 0xd3, 0xcf, 0xe5, 0xcb, 0xe3, 0xe3, 0xd9, 0xda, 0xc6, 0xd2,
	0xdb, 0xe2, 0xdf, 0xdf, 0xef, 0xc8, 0xeb, 0xeb, 0xcd, 0xe3, 0xbc, 0xdd,
	0xe2, 0xde, 0xcb, 0xce, 0xb2, 0xc1, 0xb2, 0xa0, 0xd4, 0xf7, 0xe7, 0xf8,
	0xfb, 0xe6, 0xe2, 0xe2, 0xde, 0xdb, 0xce, 0xe7, 0xce, 0xbb, 0xc2, 0xcc,
	0xc7, 0xc3, 0xa6, 0xa1, 0xcb, 0xfe, 0xde, 0xf2, 0xea, 0xf3, 0xea, 0xf5,
	0xdf, 0xea, 0xd3, 0xca, 0xea, 0xc0, 0xcd, 0xc8, 0xc9, 0xc9, 0xd2, 0xcf,
	0xe4, 0xfe, 0xfa, 0xf1, 0xfe, 0xf2, 0x02, 0xe9, 0xf0, 0xe6, 0xe6, 0xed,
	0xe3, 0xd7, 0xe4, 0xce, 0xd2, 0xd4, 0xe2, 0xec, 0xfd, 0x26, 0xed, 0x0a,
	0x01, 0x06, 0x12, 0x04, 0x02, 0xf0, 0xdc, 0xef, 0xe5, 0xe0, 0xde, 0xce,
	0xd5, 0xe6, 0xfb, 0x10, 0x1c, 0x27, 0x03, 0x0f, 0x11, 0x02, 0x05, 0x0a,
	0x03, 0xf6, 0xe9, 0xf4, 0x08, 0xe6, 0xd9, 0xe1, 0xf1, 0xfa, 0x13, 0x18,
	0x32, 0x26, 0x04, 0x0d, 0x03, 0x10, 0x11, 0x04, 0x0f, 0xf9, 0x0c, 0xfd,
	0xf9, 0xec, 0xf2, 0xfa, 0x0a, 0xf5, 0x17, 0x0d, 0x21, 0x2e, 0x19, 0x06,
	0x11, 0x0f, 0x04, 0x04, 0x09, 0x0b, 0xfc, 0x0b, 0xf7, 0xf7, 0x09, 0x17,
	0x18, 0x0b, 0x11, 0x2e, 0x2b, 0x30, 0x2c, 0x23, 0x18, 0x0f, 0xfd, 0x16,
	0x1a, 0x10, 0xf2, 0x09, 0xf8, 0x1c, 0x18, 0x07, 0x15, 0x05, 0x07, 0x0c,
	0x1a, 0x2b, 0x35, 0x22, 0x20, 0x09, 0x1d, 0x13, 0x1b, 0x26, 0x0b, 0x0d,
	0x1c, 0x00, 0x0d, 0x1b, 0x0c, 0xf7, 0x07, 0x0f, 0x2d, 0x22, 0x24, 0x20,
	0x17, 0x0f, 0x12, 0x1e, 0x20, 0x1d, 0x07, 0x1f, 0x1d, 0x0b, 0x0d, 0x16,
	0x12, 0x10, 0xfb, 0x0b, 0x16, 0x23, 0x1c, 0x1a, 0x0d, 0x23, 0x17, 0x1e,
	0x17, 0x0d, 0x0d, 0x17, 0x1a, 0x1f, 0x09, 0x05, 0x0c, 0x1c, 0xfa, 0x09,
	0x22, 0x19, 0x22, 0x1d, 0x1c, 0x1c, 0x10, 0x25, 0x12, 0x0e, 0x1a, 0x14,
	0x0f, 0x23, 0x1b, 0xff, 0x13, 0x07, 0x06, 0x0e, 0x29, 0x0b, 0x24, 0x26,
	0x15, 0x22, 0x2a, 0x34, 0x2c, 0x33, 0x2c, 0x23, 0x24, 0x19, 0x14, 0x1c,
	0x0a, 0x0b, 0x22, 0x11, 0x09, 0x0b, 0x07, 0x26, 0x12, 0x1e, 0x24, 0x32,
	0x2d, 0x24, 0x37, 0x2d, 0x26, 0x25, 0x1b, 0x1a, 0x1e, 0x14, 0x05, 0xe8,
	0xfc, 0x0e, 0x0e, 0x21, 0x23, 0x05, 0x1a, 0x09, 0x24, 0x0a, 0x2e, 0x2d,
	0x17, 0x29, 0x25, 0x1b, 0x06, 0xf2, 0xdf, 0xe2, 0x5b, 0x55, 0x50, 0x24,
	0x2e, 0x1e, 0x13, 0x1c, 0x03, 0x14, 0x15, 0x10, 0xfd, 0x1a, 0x02, 0xf2,
	0x07, 0x09, 0x24, 0x36, 0x4b, 0x53, 0x3e, 0x3f, 0x43, 0x31, 0x36, 0x24,
	0x1f, 0x2b, 0x2d, 0x31, 0x25, 0x2b, 0x23, 0x2b, 0x1e, 0x15, 0x1d, 0x1c,
	0x3f, 0x1d, 0x1d, 0x41, 0x3f, 0x38, 0x39, 0x35, 0x32, 0x2d, 0x21, 0x25,
	0x34, 0x24, 0x19, 0x18, 0x12, 0x0d, 0x13, 0x13, 0xfa, 0x0b, 0xfc, 0x14,
	0x39, 0x29, 0x2f, 0x29, 0x2b, 0x38, 0x2e, 0x3d, 0x1f, 0x2c, 0x18, 0x1f,
	0x22, 0x10, 0x24, 0x07, 0xe7, 0xef, 0xef, 0xfd, 0x1c, 0x23, 0x18, 0x31,
	0x22, 0x4c, 0x38, 0x3e, 0x37, 0x2c, 0x04, 0x18, 0x20, 0x10, 0x10, 0x1e,
	0xf1, 0xfb, 0xd5, 0x02, 0x10, 0x17, 0xfe, 0x04, 0xfe, 0x23, 0x21, 0x15,
	0x2a, 0x0f, 0x2e, 0x1c, 0x10, 0x17, 0x15, 0xf9, 0xfd, 0xfb, 0xea, 0xeb,
	0xfc, 0xe5, 0xc5, 0xd4, 0xcb, 0xf2, 0xfa, 0x11, 0xfa, 0x05, 0x1a, 0x07,
	0x0f, 0x0f, 0x13, 0xee, 0x10, 0xf8, 0xfd, 0xee, 0xf3, 0xbf, 0xd4, 0xd5,
	0xe6, 0xf4, 0xe4, 0x0a, 0x00, 0x0c, 0xfc, 0x1d, 0x1d, 0x21, 0x23, 0x1a,
	0xfc, 0xef, 0xe9, 0x00, 0xed, 0xdb, 0xc5, 0xeb, 0xdf, 0xea, 0x00, 0xf3,
	0xf7, 0x15, 0x00, 0x1e, 0x0f, 0x1e, 0x29, 0x18, 0xfc, 0xde, 0xe8, 0xf7,
	0xd3, 0xe3, 0xe0, 0xf5, 0xf9, 0xf6, 0x02, 0x02, 0x03, 0xf6, 0x07, 0x22,
	0x1e, 0x22, 0x2c, 0x23, 0xf9, 0xf3, 0xe3, 0xde, 0xcd, 0xdc, 0xde, 0xdf,
	0xe6, 0xf9, 0xf1, 0xf5, 0x08, 0xfe, 0x09, 0x23, 0x1c, 0x21, 0x15, 0x14,
	0xf8, 0xdf, 0xd4, 0xd4, 0xde, 0xe3, 0xf2, 0xfe, 0xee, 0xfc, 0xfa, 0x05,
	0x03, 0xf9, 0x05, 0x1b, 0x09, 0x03, 0x05, 0x07, 0xf9, 0xd4, 0xc8, 0xd3,
	0xfd, 0xfa, 0xf5, 0xf1, 0xf8, 0xfb, 0x05, 0x05, 0x09, 0xf7, 0xfd, 0xfd,
	0x06, 0xe6, 0xdf, 0xe1, 0xea, 0xc5, 0xd6, 0xdf, 0xfe, 0x03, 0x0a, 0xf8,
	0xe6, 0x01, 0x06, 0xf1, 0xe0, 0xf1, 0xed, 0xfe, 0xf6, 0xe3, 0xc8, 0xd0,
	0xd2, 0xc8, 0xde, 0x02, 0x14, 0xfa, 0xf5, 0xf7, 0xfe, 0xfa, 0xe2, 0xf3,
	0xf0, 0xed, 0xdf, 0xe0, 0xdb, 0xbd, 0xc5, 0xc5, 0xd8, 0xdd, 0xe9, 0xf9,
	0x01, 0xff, 0xdd, 0xdd, 0xf1, 0xed, 0xe1, 0xe7, 0xec, 0xe2, 0xdd, 0xe5,
	0xcb, 0xbb, 0xb8, 0xc7, 0xbd, 0xe0, 0xe2, 0xec, 0xff, 0xee, 0xe6, 0xe6,
	0xec, 0xea, 0xd7, 0xde, 0xf1, 0xe4, 0xe0, 0xeb, 0xdd, 0xce, 0xc4, 0xbc,
	0xdb, 0xc3, 0xcb, 0xde, 0xd3, 0xc9, 0xd1, 0xc7, 0xc0, 0xdd, 0xc6, 0xee,
	0xe1, 0xc8, 0xd2, 0xd8, 0xd9, 0xc4, 0xbe, 0xbe, 0xca, 0xcc, 0xd2, 0xdb,
	0xc0, 0xba, 0xd7, 0xc3, 0xc6, 0xc7, 0xc5, 0xc3, 0xdb, 0xd5, 0xc8, 0xc0,
	0xbf, 0xc1, 0xae, 0xc5, 0xe4, 0xe3, 0xd5, 0xdd, 0xcf, 0xd9, 0xf3, 0xdb,
	0xde, 0xde, 0xd9, 0xe5, 0xcf, 0xee, 0xd2, 0xd0, 0xef, 0xed, 0xc2, 0xa7,
	0xc9, 0xc1, 0xd7, 0xf2, 0xf0, 0x0c, 0x14, 0xfa, 0x02, 0xfb, 0x0a, 0xfb,
	0x05, 0x10, 0xfc, 0xfd, 0x00, 0xe1, 0xee, 0x05, 0xd8, 0xe1, 0xe7, 0xec,
	0xf8, 0x0f, 0x02, 0x06, 0xff, 0x0c, 0x03, 0x15, 0x0a, 0xfd, 0x00, 0x12,
	0xed, 0x0e, 0xf4, 0x11, 0x07, 0xfc, 0xfa, 0xf3, 0xee, 0xfb, 0xef, 0x05,
	0xfa, 0x0d, 0x0e, 0x17, 0x00, 0x0c, 0x07, 0xf3, 0x06, 0x06, 0x16, 0x0f,
	0x19, 0x25, 0x15, 0xfb, 0x03, 0xfe, 0xfb, 0x01, 0xf9, 0xf9, 0xf1, 0x05,
	0xfa, 0x03, 0xf2, 0x08, 0x1d, 0x16, 0x00, 0x04, 0x23, 0x1d, 0x13, 0x1e,
	0x0e, 0x0e, 0x01, 0xf6, 0xfd, 0xd7, 0xf0, 0xf6, 0xdc, 0xfc, 0x09, 0xf6,
	0xf8, 0x0a, 0x02, 0x20, 0x1a, 0x16, 0x1f, 0x0d, 0x12, 0x1b, 0x0c, 0x0c,
	0x05, 0xef, 0xfa, 0xfb, 0xf1, 0xff, 0x0f, 0x1b, 0x08, 0x0e, 0x10, 0x2c,
	0x0c, 0x04, 0x09, 0x10, 0x07, 0x0e, 0x0a, 0x1d, 0x08, 0x0c, 0x01, 0x09,
	0xf9, 0xf5, 0x17, 0x10, 0x19, 0x07, 0x25, 0x2b, 0x04, 0xfd, 0x05, 0xf6,
	0x08, 0x17, 0x17, 0x0e, 0x16, 0x0b, 0x0c, 0x04, 0xfd, 0xf7, 0xf2, 0xfc,
	0xed, 0x0c, 0x13, 0x1b, 0xee, 0xee, 0xee, 0x11, 0xf5, 0x0f, 0x19, 0x08,
	0x28, 0x0a, 0x14, 0x11, 0xfd, 0x04, 0x03, 0xff, 0xf9, 0xee, 0xf0, 0xec,
	0xdc, 0xf5, 0xf2, 0xfc, 0x07, 0x00, 0x20, 0x0e, 0x08, 0x10, 0x0c, 0x06,
	0x02, 0x0b, 0x0a, 0xf0, 0xf7, 0xf7, 0xce, 0xb7, 0xc4, 0xeb, 0x02, 0x01,
	0xf8, 0x0b, 0x17, 0x17, 0x07, 0x15, 0x16, 0x15, 0xf4, 0x05, 0xf9, 0x04,
	0xf9, 0xd0, 0xbe, 0xc4, 0xbf, 0xda, 0x07, 0x0c, 0x09, 0x01, 0x0f, 0x0d,
	0x13, 0x07, 0x0d, 0x01, 0xf2, 0xfc, 0x06, 0xf8, 0xdb, 0xd4, 0xe0, 0xd8,
	0xe4, 0xf6, 0x0c, 0xfa, 0x0b, 0x17, 0x20, 0x14, 0x13, 0x13, 0xfa, 0x03,
	0x03, 0xf2, 0xf8, 0xe7, 0xd9, 0xe9, 0xfe, 0xea, 0xf3, 0x02, 0x09, 0xf3,
	0x15, 0x1b, 0x21, 0x28, 0x14, 0x05, 0x0e, 0xf7, 0xf9, 0xe6, 0xef, 0xea,
	0x01, 0x09, 0xf8, 0x0f, 0x14, 0x0a, 0x0f, 0x08, 0x06, 0x10, 0x06, 0x06,
	0x06, 0x02, 0xfa, 0x05, 0xf1, 0x0a, 0xf6, 0x03, 0x08, 0x09, 0x1a, 0x10,
	0x13, 0x25, 0x18, 0xfd, 0xee, 0xe3, 0xdc, 0xee, 0xec, 0xf7, 0xf6, 0x04,
	0x06, 0x18, 0xff, 0x02, 0x0f, 0x10, 0x0a, 0x01, 0x1d, 0x17, 0x17, 0xdf,
	0xc5, 0xcc, 0xde, 0xed, 0xec, 0xf5, 0x07, 0xee, 0xf1, 0x0a, 0x05, 0xf7,
	0x12, 0x1a, 0x13, 0xfb, 0x0d, 0x11, 0xe1, 0xd9, 0xec, 0xff, 0xfe, 0x10,
	0xf6, 0x13, 0x04, 0xf1, 0x0a, 0xfd, 0x07, 0x0c, 0xf4, 0x00, 0xf8, 0x0c,
	0xf0, 0xfc, 0xe9, 0xf5, 0x1f, 0x15, 0x18, 0x14, 0x0c, 0xfc, 0x15, 0x13,
	0x21, 0x18, 0x0e, 0x00, 0x07, 0x09, 0xf2, 0x07, 0x9c, 0xee, 0xe9, 0x0b,
	0x1c, 0xfc, 0xf7, 0x03, 0x00, 0xf3, 0xfa, 0xf9, 0x12, 0x02, 0x17, 0x12,
	0x0d, 0x02, 0x00, 0xc9, 0x8f, 0xb3, 0xac, 0xe6, 0x0e, 0x27, 0x33, 0x36,
	0x25, 0x2c, 0x1b, 0x20, 0x1c, 0x0f, 0x1f, 0x23, 0x08, 0x15, 0xe6, 0xaf,
	0xba, 0xcc, 0xc1, 0x02, 0x1b, 0x09, 0x11, 0x2d, 0x2a, 0x34, 0x24, 0x21,
	0x3a, 0x26, 0x21, 0x02, 0x07, 0xf4, 0xed, 0xf1, 0xd0, 0xf8, 0xf1, 0xf4,
	0xe6, 0xf2, 0xf1, 0x00, 0x30, 0x1f, 0x1f, 0x17, 0x20, 0xfa, 0xf9, 0x01,
	0xfa, 0xf2, 0xe6, 0x00, 0x1a, 0x15, 0x07, 0x00, 0xf9, 0x02, 0x04, 0x08,
	0x0d, 0x1c, 0x0e, 0xfa, 0x00, 0xfd, 0xef, 0xf7, 0x09, 0x01, 0xe6, 0x05,
	0x3c, 0x13, 0x25, 0x12, 0x04, 0x07, 0x14, 0x04, 0x13, 0x10, 0x09, 0x06,
	0xff, 0x0c, 0x06, 0x01, 0x14, 0x02, 0x0f, 0x0b, 0x37, 0x1b, 0x2a, 0x0d,
	0x0b, 0x0d, 0x09, 0x17, 0x1b, 0x09, 0x11, 0x0d, 0x0d, 0x21, 0x1d, 0x20,
	0x1e, 0x25, 0x28, 0x17, 0x25, 0x30, 0x2f, 0x16, 0x0c, 0x0e, 0x19, 0x23,
	0x2d, 0x1b, 0x1f, 0x1b, 0x2e, 0x18, 0x23, 0x36, 0x16, 0x22, 0x19, 0x2f,
	0x33, 0x0f, 0x23, 0x11, 0x15, 0x08, 0x10, 0x1d, 0x1b, 0x12, 0x12, 0x18,
	0x1d, 0x19, 0x12, 0x1d, 0x11, 0x23, 0x1f, 0x2e, 0x05, 0x1e, 0x15, 0x03,
	0x00, 0x0d, 0xf9, 0x16, 0x17, 0x27, 0x19, 0x10, 0x0d, 0x12, 0x21, 0x11,
	0x12, 0x13, 0x13, 0x0a, 0x1b, 0x14, 0x05, 0x16, 0xf2, 0x09, 0x0b, 0x1b,
	0x06, 0x09, 0x1c, 0x0f, 0x16, 0x10, 0x0e, 0x10, 0x16, 0x04, 0x0b, 0xe6,
	0x04, 0x03, 0x15, 0xf7, 0xed, 0x0e, 0xf7, 0xfd, 0x0d, 0x00, 0x00, 0x01,
	0x01, 0x0d, 0x18, 0x10, 0xf4, 0x12, 0xf5, 0xd6, 0x07, 0xf8, 0xff, 0xf4,
	0xe9, 0xef, 0xf7, 0xfe, 0x04, 0x01, 0xf3, 0x0a, 0xff, 0x01, 0xfc, 0xfc,
	0x07, 0x04, 0xf0, 0xd6, 0x00, 0xf9, 0x08, 0xeb, 0xf5, 0xfc, 0xf2, 0x00,
	0x02, 0x06, 0xfd, 0x07, 0x0a, 0xf5, 0xec, 0x09, 0xf3, 0xe9, 0xef, 0xd1,
	0xe1, 0xf5, 0xf2, 0xec, 0xeb, 0xe7, 0x03, 0x05, 0xf7, 0xf4, 0xfa, 0xfb,
	0x07, 0x05, 0xef, 0xf0, 0xf8, 0xeb, 0xe0, 0xd6, 0xc2, 0xc1, 0xcb, 0xf2,
	0xe9, 0xf6, 0xef, 0xf5, 0xf3, 0xeb, 0xf2, 0xf0, 0xf2, 0xe6, 0xe7, 0xf4,
	0xfd, 0xeb, 0xcc, 0xdc, 0xc9, 0xc4, 0xc6, 0xdf, 0xe3, 0xd1, 0xd3, 0xeb,
	0xed, 0xf3, 0xeb, 0xf1, 0xf1, 0xf7, 0xe2, 0x00, 0xed, 0xe5, 0xd6, 0xd0,
	0xbd, 0xc9, 0xca, 0xf3, 0xed, 0xde, 0xd0, 0xd2, 0xca, 0xc5, 0xd6, 0xe1,
	0xdd, 0xee, 0xda, 0xe1, 0xd9, 0xd3, 0xca, 0xd0, 0xe7, 0xf8, 0xe8, 0xe5,
	0xdd, 0xd1, 0xe5, 0xdd, 0xd0, 0xcb, 0xeb, 0xd6, 0xdb, 0xd4, 0xe4, 0xd4,
	0xee, 0xd8, 0xed, 0xf4, 0xf6, 0xef, 0xe3, 0xe4, 0xdc, 0xcb, 0xcd, 0xdd,
	0xe2, 0xd1, 0xd3, 0xcb, 0xd7, 0xee, 0xec, 0xec, 0xe6, 0xd9, 0xfd, 0x0b,
	0x02, 0xfd, 0xd3, 0xd5, 0xe2, 0xee, 0xd6, 0xe4, 0xd1, 0xe0, 0xe0, 0xd7,
	0xdf, 0xdf, 0xf1, 0xf6, 0xef, 0xde, 0x15, 0x10, 0x42, 0xff, 0xff, 0xff,
	0x04, 0x00, 0x00, 0x00, 0x08, 0x00, 0x00, 0x00, 0xff, 0xff, 0xff, 0xff,
	0x90, 0x01, 0x00, 0x00, 0x7c, 0xfa, 0xff, 0xff, 0x80, 0xfa, 0xff, 0xff,
	0x0f, 0x00, 0x00, 0x00, 0x4d, 0x4c, 0x49, 0x52, 0x20, 0x43, 0x6f, 0x6e,
	0x76, 0x65, 0x72, 0x74, 0x65, 0x64, 0x2e, 0x00, 0x01, 0x00, 0x00, 0x00,
	0x14, 0x00, 0x00, 0x00, 0x00, 0x00, 0x0e, 0x00, 0x18, 0x00, 0x14, 0x00,
	0x10, 0x00, 0x0c, 0x00, 0x08, 0x00, 0x04, 0x00, 0x0e, 0x00, 0x00, 0x00,
	0x14, 0x00, 0x00, 0x00, 0x1c, 0x00, 0x00, 0x00, 0x24, 0x01, 0x00, 0x00,
	0x28, 0x01, 0x00, 0x00, 0x2c, 0x01, 0x00, 0x00, 0x04, 0x00, 0x00, 0x00,
	0x6d, 0x61, 0x69, 0x6e, 0x00, 0x00, 0x00, 0x00, 0x05, 0x00, 0x00, 0x00,
	0xec, 0x00, 0x00, 0x00, 0xb8, 0x00, 0x00, 0x00, 0x74, 0x00, 0x00, 0x00,
	0x28, 0x00, 0x00, 0x00, 0x04, 0x00, 0x00, 0x00, 0x62, 0xff, 0xff, 0xff,
	0x0c, 0x00, 0x00, 0x00, 0x10, 0x00, 0x00, 0x00, 0x04, 0x00, 0x00, 0x00,
	0x01, 0x00, 0x00, 0x00, 0x08, 0x00, 0x00, 0x00, 0x01, 0x00, 0x00, 0x00,
	0x07, 0x00, 0x00, 0x00, 0xc6, 0xff, 0xff, 0xff, 0x1c, 0x00, 0x00, 0x00,
	0x00, 0x00, 0x00, 0x09, 0x1c, 0x00, 0x00, 0x00, 0x20, 0x00, 0x00, 0x00,
	0x03, 0x00, 0x00, 0x00, 0x00, 0x00, 0x06, 0x00, 0x08, 0x00, 0x04, 0x00,
	0x06, 0x00, 0x00, 0x00, 0x00, 0x00, 0x80, 0x3f, 0x01, 0x00, 0x00, 0x00,
	0x07, 0x00, 0x00, 0x00, 0x01, 0x00, 0x00, 0x00, 0x06, 0x00, 0x00, 0x00,
	0x00, 0x00, 0x0e, 0x00, 0x18, 0x00, 0x14, 0x00, 0x10, 0x00, 0x0c, 0x00,
	0x0b, 0x00, 0x04, 0x00, 0x0e, 0x00, 0x00, 0x00, 0x14, 0x00, 0x00, 0x00,
	0x00, 0x00, 0x00, 0x08, 0x10, 0x00, 0x00, 0x00, 0x14, 0x00, 0x00, 0x00,
	0x02, 0x00, 0x00, 0x00, 0x6c, 0xfb, 0xff, 0xff, 0x01, 0x00, 0x00, 0x00,
	0x06, 0x00, 0x00, 0x00, 0x03, 0x00, 0x00, 0x00, 0x05, 0x00, 0x00, 0x00,
	0x02, 0x00, 0x00, 0x00, 0x03, 0x00, 0x00, 0x00, 0x00, 0x00, 0x0a, 0x00,
	0x10, 0x00, 0x0c, 0x00, 0x08, 0x00, 0x04, 0x00, 0x0a, 0x00, 0x00, 0x00,
	0x0c, 0x00, 0x00, 0x00, 0x10, 0x00, 0x00, 0x00, 0x01, 0x00, 0x00, 0x00,
	0x01, 0x00, 0x00, 0x00, 0x05, 0x00, 0x00, 0x00, 0x02, 0x00, 0x00, 0x00,
	0x04, 0x00, 0x00, 0x00, 0x01, 0x00, 0x00, 0x00, 0x00, 0x00, 0x0a, 0x00,
	0x0c, 0x00, 0x00, 0x00, 0x08, 0x00, 0x04, 0x00, 0x0a, 0x00, 0x00, 0x00,
	0x08, 0x00, 0x00, 0x00, 0x0c, 0x00, 0x00, 0x00, 0x01, 0x00, 0x00, 0x00,
	0x04, 0x00, 0x00, 0x00, 0x01, 0x00, 0x00, 0x00, 0x00, 0x00, 0x00, 0x00,
	0x01, 0x00, 0x00, 0x00, 0x08, 0x00, 0x00, 0x00, 0x01, 0x00, 0x00, 0x00,
	0x00, 0x00, 0x00, 0x00, 0x09, 0x00, 0x00, 0x00, 0xe0, 0x03, 0x00, 0x00,
	0x80, 0x03, 0x00, 0x00, 0xfc, 0x02, 0x00, 0x00, 0x84, 0x02, 0x00, 0x00,
	0x08, 0x02, 0x00, 0x00, 0x74, 0x01, 0x00, 0x00, 0xd8, 0x00, 0x00, 0x00,
	0x5c, 0x00, 0x00, 0x00, 0x04, 0x00, 0x00, 0x00, 0x58, 0xfc, 0xff, 0xff,
	0x14, 0x00, 0x00, 0x00, 0x1c, 0x00, 0x00, 0x00, 0x1c, 0x00, 0x00, 0x00,
	0x09, 0x00, 0x00, 0x00, 0x34, 0x00, 0x00, 0x00, 0x02, 0x00, 0x00, 0x00,
	0xff, 0xff, 0xff, 0xff, 0x0a, 0x00, 0x00, 0x00, 0x3c, 0xfc, 0xff, 0xff,
	0x19, 0x00, 0x00, 0x00, 0x53, 0x74, 0x61, 0x74, 0x65, 0x66, 0x75, 0x6c,
	0x50, 0x61, 0x72, 0x74, 0x69, 0x74, 0x69, 0x6f, 0x6e, 0x65, 0x64, 0x43,
	0x61, 0x6c, 0x6c, 0x3a, 0x30, 0x00, 0x00, 0x00, 0x02, 0x00, 0x00, 0x00,
	0x01, 0x00, 0x00, 0x00, 0x0a, 0x00, 0x00, 0x00, 0x74, 0xfe, 0xff, 0xff,
	0x18, 0x00, 0x00, 0x00, 0x20, 0x00, 0x00, 0x00, 0x40, 0x00, 0x00, 0x00,
	0x08, 0x00, 0x00, 0x00, 0x00, 0x00, 0x00, 0x09, 0x54, 0x00, 0x00, 0x00,
	0x02, 0x00, 0x00, 0x00, 0xff, 0xff, 0xff, 0xff, 0x0a, 0x00, 0x00, 0x00,
	0x84, 0xfd, 0xff, 0xff, 0x08, 0x00, 0x00, 0x00, 0x14, 0x00, 0x00, 0x00,
	0x01, 0x00, 0x00, 0x00, 0x80, 0xff, 0xff, 0xff, 0xff, 0xff, 0xff, 0xff,
	0x00, 0x00, 0x00, 0x00, 0x01, 0x00, 0x00, 0x00, 0x00, 0x00, 0x80, 0x3b,
	0x1a, 0x00, 0x00, 0x00, 0x53, 0x74, 0x61, 0x74, 0x65, 0x66, 0x75, 0x6c,
	0x50, 0x61, 0x72, 0x74, 0x69, 0x74, 0x69, 0x6f, 0x6e, 0x65, 0x64, 0x43,
	0x61, 0x6c, 0x6c, 0x3a, 0x30, 0x31, 0x00, 0x00, 0x02, 0x00, 0x00, 0x00,
	0x01, 0x00, 0x00, 0x00, 0x0a, 0x00, 0x00, 0x00, 0xec, 0xfe, 0xff, 0xff,
	0x18, 0x00, 0x00, 0x00, 0x20, 0x00, 0x00, 0x00, 0x40, 0x00, 0x00, 0x00,
	0x07, 0x00, 0x00, 0x00, 0x00, 0x00, 0x00, 0x09, 0x74, 0x00, 0x00, 0x00,
	0x02, 0x00, 0x00, 0x00, 0xff, 0xff, 0xff, 0xff, 0x0a, 0x00, 0x00, 0x00,
	0xfc, 0xfd, 0xff, 0xff, 0x08, 0x00, 0x00, 0x00, 0x14, 0x00, 0x00, 0x00,
	0x01, 0x00, 0x00, 0x00, 0x13, 0x00, 0x00, 0x00, 0x00, 0x00, 0x00, 0x00,
	0x00, 0x00, 0x00, 0x00, 0x01, 0x00, 0x00, 0x00, 0xae, 0xcd, 0x10, 0x3e,
	0x38, 0x00, 0x00, 0x00, 0x73, 0x65, 0x71, 0x75, 0x65, 0x6e, 0x74, 0x69,
	0x61, 0x6c, 0x5f, 0x33, 0x2f, 0x64, 0x65, 0x6e, 0x73, 0x65, 0x5f, 0x35,
	0x2f, 0x4d, 0x61, 0x74, 0x4d, 0x75, 0x6c, 0x3b, 0x73, 0x65, 0x71, 0x75,
	0x65, 0x6e, 0x74, 0x69, 0x61, 0x6c, 0x5f, 0x33, 0x2f, 0x64, 0x65, 0x6e,
	0x73, 0x65, 0x5f, 0x35, 0x2f, 0x42, 0x69, 0x61, 0x73, 0x41, 0x64, 0x64,
	0x00, 0x00, 0x00, 0x00, 0x02, 0x00, 0x00, 0x00, 0x01, 0x00, 0x00, 0x00,
	0x0a, 0x00, 0x00, 0x00, 0x84, 0xff, 0xff, 0xff, 0x18, 0x00, 0x00, 0x00,
	0x20, 0x00, 0x00, 0x00, 0x40, 0x00, 0x00, 0x00, 0x06, 0x00, 0x00, 0x00,
	0x00, 0x00, 0x00, 0x09, 0x58, 0x00, 0x00, 0x00, 0x02, 0x00, 0x00, 0x00,
	0xff, 0xff, 0xff, 0xff, 0x90, 0x01, 0x00, 0x00, 0x94, 0xfe, 0xff, 0xff,
	0x08, 0x00, 0x00, 0x00, 0x14, 0x00, 0x00, 0x00, 0x01, 0x00, 0x00, 0x00,
	0x80, 0xff, 0xff, 0xff, 0xff, 0xff, 0xff, 0xff, 0x00, 0x00, 0x00, 0x00,
	0x01, 0x00, 0x00, 0x00, 0x81, 0x80, 0x80, 0x3b, 0x1e, 0x00, 0x00, 0x00,
	0x73, 0x65, 0x71, 0x75, 0x65, 0x6e, 0x74, 0x69, 0x61, 0x6c, 0x5f, 0x33,
	0x2f, 0x66, 0x6c, 0x61, 0x74, 0x74, 0x65, 0x6e, 0x5f, 0x33, 0x2f, 0x52,
	0x65, 0x73, 0x68, 0x61, 0x70, 0x65, 0x00, 0x00, 0x02, 0x00, 0x00, 0x00,
	0x01, 0x00, 0x00, 0x00, 0x90, 0x01, 0x00, 0x00, 0x14, 0x00, 0x1c, 0x00,
	0x18, 0x00, 0x17, 0x00, 0x10, 0x00, 0x0c, 0x00, 0x08, 0x00, 0x00, 0x00,
	0x00, 0x00, 0x04, 0x00, 0x14, 0x00, 0x00, 0x00, 0x18, 0x00, 0x00, 0x00,
	0x28, 0x00, 0x00, 0x00, 0x44, 0x00, 0x00, 0x00, 0x05, 0x00, 0x00, 0x00,
	0x00, 0x00, 0x00, 0x09, 0x4c, 0x00, 0x00, 0x00, 0x04, 0x00, 0x00, 0x00,
	0xff, 0xff, 0xff, 0xff, 0x14, 0x00, 0x00, 0x00, 0x14, 0x00, 0x00, 0x00,
	0x01, 0x00, 0x00, 0x00, 0x2c, 0xff, 0xff, 0xff, 0x08, 0x00, 0x00, 0x00,
	0x10, 0x00, 0x00, 0x00, 0x01, 0x00, 0x00, 0x00, 0x80, 0xff, 0xff, 0xff,
	0xff, 0xff, 0xff, 0xff, 0x01, 0x00, 0x00, 0x00, 0x81, 0x80, 0x80, 0x3b,
	0x0c, 0x00, 0x00, 0x00, 0x74, 0x66, 0x6c, 0x2e, 0x71, 0x75, 0x61, 0x6e,
	0x74, 0x69, 0x7a, 0x65, 0x00, 0x00, 0x00, 0x00, 0x04, 0x00, 0x00, 0x00,
	0x01, 0x00, 0x00, 0x00, 0x14, 0x00, 0x00, 0x00, 0x14, 0x00, 0x00, 0x00,
	0x01, 0x00, 0x00, 0x00, 0x1a, 0xff, 0xff, 0xff, 0x14, 0x00, 0x00, 0x00,
	0x34, 0x00, 0x00, 0x00, 0x04, 0x00, 0x00, 0x00, 0x00, 0x00, 0x00, 0x02,
	0x58, 0x00, 0x00, 0x00, 0x8c, 0xff, 0xff, 0xff, 0x08, 0x00, 0x00, 0x00,
	0x14, 0x00, 0x00, 0x00, 0x01, 0x00, 0x00, 0x00, 0x00, 0x00, 0x00, 0x00,
	0x00, 0x00, 0x00, 0x00, 0x00, 0x00, 0x00, 0x00, 0x01, 0x00, 0x00, 0x00,
	0xe9, 0x9f, 0xe5, 0x37, 0x2b, 0x00, 0x00, 0x00, 0x73, 0x65, 0x71, 0x75,
	0x65, 0x6e, 0x74, 0x69, 0x61, 0x6c, 0x5f, 0x33, 0x2f, 0x64, 0x65, 0x6e,
	0x73, 0x65, 0x5f, 0x35, 0x2f, 0x42, 0x69, 0x61, 0x73, 0x41, 0x64, 0x64,
	0x2f, 0x52, 0x65, 0x61, 0x64, 0x56, 0x61, 0x72, 0x69, 0x61, 0x62, 0x6c,
	0x65, 0x4f, 0x70, 0x00, 0x01, 0x00, 0x00, 0x00, 0x0a, 0x00, 0x00, 0x00,
	0x8e, 0xff, 0xff, 0xff, 0x20, 0x00, 0x00, 0x00, 0x3c, 0x00, 0x00, 0x00,
	0x03, 0x00, 0x00, 0x00, 0x00, 0x00, 0x00, 0x09, 0x50, 0x00, 0x00, 0x00,
	0x0c, 0x00, 0x0c, 0x00, 0x00, 0x00, 0x00, 0x00, 0x08, 0x00, 0x04, 0x00,
	0x0c, 0x00, 0x00, 0x00, 0x08, 0x00, 0x00, 0x00, 0x10, 0x00, 0x00, 0x00,
	0x01, 0x00, 0x00, 0x00, 0x00, 0x00, 0x00, 0x00, 0x00, 0x00, 0x00, 0x00,
	0x01, 0x00, 0x00, 0x00, 0x48, 0xba, 0xe4, 0x3b, 0x1b, 0x00, 0x00, 0x00,
	0x73, 0x65, 0x71, 0x75, 0x65, 0x6e, 0x74, 0x69, 0x61, 0x6c, 0x5f, 0x33,
	0x2f, 0x64, 0x65, 0x6e, 0x73, 0x65, 0x5f, 0x35, 0x2f, 0x4d, 0x61, 0x74,
	0x4d, 0x75, 0x6c, 0x00, 0x02, 0x00, 0x00, 0x00, 0x0a, 0x00, 0x00, 0x00,
	0x90, 0x01, 0x00, 0x00, 0x00, 0x00, 0x0e, 0x00, 0x18, 0x00, 0x14, 0x00,
	0x13, 0x00, 0x0c, 0x00, 0x08, 0x00, 0x04, 0x00, 0x0e, 0x00, 0x00, 0x00,
	0x14, 0x00, 0x00, 0x00, 0x14, 0x00, 0x00, 0x00, 0x02, 0x00, 0x00, 0x00,
	0x00, 0x00, 0x00, 0x02, 0x2c, 0x00, 0x00, 0x00, 0x90, 0xff, 0xff, 0xff,
	0x1c, 0x00, 0x00, 0x00, 0x73, 0x65, 0x71, 0x75, 0x65, 0x6e, 0x74, 0x69,
	0x61, 0x6c, 0x5f, 0x33, 0x2f, 0x66, 0x6c, 0x61, 0x74, 0x74, 0x65, 0x6e,
	0x5f, 0x33, 0x2f, 0x43, 0x6f, 0x6e, 0x73, 0x74, 0x00, 0x00, 0x00, 0x00,
	0x01, 0x00, 0x00, 0x00, 0x02, 0x00, 0x00, 0x00, 0x14, 0x00, 0x18, 0x00,
	0x14, 0x00, 0x00, 0x00, 0x10, 0x00, 0x0c, 0x00, 0x08, 0x00, 0x00, 0x00,
	0x00, 0x00, 0x04, 0x00, 0x14, 0x00, 0x00, 0x00, 0x14, 0x00, 0x00, 0x00,
	0x28, 0x00, 0x00, 0x00, 0x28, 0x00, 0x00, 0x00, 0x01, 0x00, 0x00, 0x00,
	0x48, 0x00, 0x00, 0x00, 0x04, 0x00, 0x00, 0x00, 0xff, 0xff, 0xff, 0xff,
	0x14, 0x00, 0x00, 0x00, 0x14, 0x00, 0x00, 0x00, 0x01, 0x00, 0x00, 0x00,
	0x04, 0x00, 0x04, 0x00, 0x04, 0x00, 0x00, 0x00, 0x21, 0x00, 0x00, 0x00,
	0x73, 0x65, 0x72, 0x76, 0x69, 0x6e, 0x67, 0x5f, 0x64, 0x65, 0x66, 0x61,
	0x75, 0x6c, 0x74, 0x5f, 0x66, 0x6c, 0x61, 0x74, 0x74, 0x65, 0x6e, 0x5f,
	0x33, 0x5f, 0x69, 0x6e, 0x70, 0x75, 0x74, 0x3a, 0x30, 0x00, 0x00, 0x00,
	0x04, 0x00, 0x00, 0x00, 0x01, 0x00, 0x00, 0x00, 0x14, 0x00, 0x00, 0x00,
	0x14, 0x00, 0x00, 0x00, 0x01, 0x00, 0x00, 0x00, 0x05, 0x00, 0x00, 0x00,
	0x68, 0x00, 0x00, 0x00, 0x4c, 0x00, 0x00, 0x00, 0x38, 0x00, 0x00, 0x00,
	0x18, 0x00, 0x00, 0x00, 0x04, 0x00, 0x00, 0x00, 0xe0, 0xff, 0xff, 0xff,
	0x06, 0x00, 0x00, 0x00, 0x02, 0x00, 0x00, 0x00, 0x00, 0x00, 0x00, 0x06,
	0xf0, 0xff, 0xff, 0xff, 0x19, 0x00, 0x00, 0x00, 0x02, 0x00, 0x00, 0x00,
	0x00, 0x00, 0x00, 0x19, 0x0c, 0x00, 0x10, 0x00, 0x0f, 0x00, 0x00, 0x00,
	0x08, 0x00, 0x04, 0x00, 0x0c, 0x00, 0x00, 0x00, 0x09, 0x00, 0x00, 0x00,
	0x04, 0x00, 0x00, 0x00, 0x00, 0x00, 0x00, 0x09, 0xf4, 0xff, 0xff, 0xff,
	0x16, 0x00, 0x00, 0x00, 0x00, 0x00, 0x00, 0x16, 0x0c, 0x00, 0x0c, 0x00,
	0x0b, 0x00, 0x00, 0x00, 0x00, 0x00, 0x04, 0x00, 0x0c, 0x00, 0x00, 0x00,
	0x72, 0x00, 0x00, 0x00, 0x00, 0x00, 0x00, 0x72
};
unsigned int g_model_len = 6152;
